/**
  ******************************************************************************
  * @file    basic_model_data_params.c
  * @author  AST Embedded Analytics Research Platform
  * @date    2025-10-05T22:07:48+0200
  * @brief   AI Tool Automatic Code Generator for Embedded NN computing
  ******************************************************************************
  * Copyright (c) 2025 STMicroelectronics.
  * All rights reserved.
  *
  * This software is licensed under terms that can be found in the LICENSE file
  * in the root directory of this software component.
  * If no LICENSE file comes with this software, it is provided AS-IS.
  ******************************************************************************
  */

#include "basic_model_data_params.h"


/**  Activations Section  ****************************************************/
ai_handle g_basic_model_activations_table[1 + 2] = {
  AI_HANDLE_PTR(AI_MAGIC_MARKER),
  AI_HANDLE_PTR(NULL),
  AI_HANDLE_PTR(AI_MAGIC_MARKER),
};




/**  Weights Section  ********************************************************/
AI_ALIGNED(32)
const ai_u64 s_basic_model_weights_array_u64[50885] = {
  0xbda45f363d4fe6faU, 0x3c0b55e83d8aee9dU, 0x3bd75db0bd44c612U, 0xbcd838de3c356610U,
  0x3d6cd83a3d657d36U, 0x3d42a05e3d49fedeU, 0x3d307b18bd9ebca6U, 0xbd03babbbbc22bc0U,
  0xbcb326243d5d54a6U, 0xbc52ce303d302960U, 0xbb8c01b0bda4a69cU, 0xbc92ab3cbd7f30c6U,
  0x3d8cab3f3d025f26U, 0xbd84893d3d3ffa9aU, 0xbd2196d4bd87c8edU, 0xbd6289ca3d69129eU,
  0xbd3d12e03d6f42d6U, 0xbd7805713d27cdfaU, 0xbd226d2b3c256f10U, 0xbd64d877bb64db7bU,
  0xbccc847ebc1ac31aU, 0x3d8c252d3cd61dafU, 0xbd47171bbe274b6bU, 0xbddd2341bdbc6d3eU,
  0xbd281ca5bcbac3edU, 0xbd0b5d4fbd91bcc9U, 0xbd9ab52a3d223ba0U, 0xbd8ead283d9b5817U,
  0xbd2d564a3d0d2144U, 0xbde8b1f23cef36faU, 0x3d571e7dbc70977bU, 0xbd30c6263ba0d250U,
  0xbe0575d7bdea7e9aU, 0xbc5926efbdf5e0d6U, 0xba0da97cbc1ba5aaU, 0x3d2beeccbc610dd3U,
  0xbd8038603d4fa7b4U, 0xbcd10cf83d1df346U, 0x3d12becdbd11df3bU, 0x3b056145bdaeb27aU,
  0xbb0ffa5cbe24b1c4U, 0xbcf63b50bc5bd658U, 0xbc711cb0bd335fd0U, 0xbd262695bca4f975U,
  0xbd9925bebc015478U, 0xbd33b0c0bc2f5425U, 0xbd89c056be169f38U, 0xbe5f0e21be8fd2cfU,
  0xbdc78c3fbe07db7dU, 0xbd2fbfb4bdbef90fU, 0xbe26bcfcbd730db9U, 0xbdd76241be0694e1U,
  0x3d793073bd9d9ce1U, 0xbd152f0c3d9bd00aU, 0x3d90696bbd0b0aa9U, 0xbd81562cbce7f46bU,
  0x3c87fde0bc640600U, 0xbbb04512bdfabdccU, 0xbdba965b3cf1a79fU, 0xbdb76933bd87190eU,
  0xbe5f0594be87e10bU, 0xbdec3da2be20f725U, 0xbd2d59c33d2e3347U, 0xbdaceb3a3cba2e3aU,
  0x3b016890bd4f3f47U, 0xbc9125dcbd939cf4U, 0x3d650d82bd62839dU, 0x3d74b7103dbac39eU,
  0x3db22cda3dd70505U, 0xbd68a6373c678e7dU, 0xbc42e0083cb546b0U, 0x3c492b39bdd84fb8U,
  0xbd5d1920bdc4447dU, 0xbe05d459be11fed0U, 0xbe2f771bbe05c2f9U, 0x3bd500d4be4179cbU,
  0x3e15573b3d82cb88U, 0x3d16d1a53dbed708U, 0x3d917555bd9e806fU, 0x3d0c51e4bd1d916bU,
  0xbd0bc3fcbc697b28U, 0xbca4da493d43fb62U, 0x3d7e5c56bd2a1203U, 0xbda56ab43cffd13dU,
  0x3a3eea673d8d5da5U, 0x3d16560e3dd61cbfU, 0xbd4c03e73ca0722bU, 0xbd1abf54bd1f1154U,
  0xbe163146bdeb0818U, 0xbc2c6cefbd81672aU, 0x3d8dbf183dd68a7cU, 0xbcce994a3ce68b87U,
  0xbd3700473831ae3dU, 0xbcb17786bd61c37bU, 0x3d2e00283d3d1392U, 0x3dbbf3d8bc92e8e8U,
  0x3d6495a43d95731bU, 0x3b702ec23cca1776U, 0xbd8d169abd8e0367U, 0xbdfa4e15bd8a23e7U,
  0xbc88e98f3c24d660U, 0xbdcab0d7bded204dU, 0xbe458e32be2c663cU, 0x3e293f9cbd8d7f3fU,
  0x3d1b28013de53cdcU, 0x3d0b90e03d4c4211U, 0xbdac001ebd79f6c0U, 0xbcc92d16bd862a71U,
  0xbd3ba312bd77e6c3U, 0xbc5c2dfdbcd4ade1U, 0x3ccf74853d3fc5cfU, 0xbda2c92f3e14c2d7U,
  0xbe1137c13d8a26a1U, 0xbd80edd4bd349574U, 0xbdf5adbd3cefa45aU, 0xbe3ab3a3bd91e24dU,
  0xbdfd7c39be81e02fU, 0x3e115a98bd8c26f2U, 0x3d7f18a93e379e89U, 0xbdc412d9bd7578b0U,
  0xbbbf7194be0e07efU, 0xbc0d6912bda93340U, 0xbc977e91bc3ef148U, 0x3db92d303cb5e174U,
  0x3e28c2733e1e20bcU, 0x3ddf1d753ddae1d0U, 0xbe04ba36bdaab32eU, 0xbe0acd75bb41ae9bU,
  0xbe0cb50a3cfd5ea3U, 0xbe7e1103bdb90833U, 0xbdf86ec2be80a74cU, 0x3e440192bd99bac3U,
  0x3e29a47b3e825c23U, 0xbd40d5c43d759016U, 0xbcb149f9bdf16af4U, 0x3bcd30593ca2947eU,
  0x3c1d21913ccf351cU, 0x3baa087d3c0ae7baU, 0x3e5257cd3da133c6U, 0xbc8dcb173ddd54fbU,
  0x3c3f79ccbc0939d0U, 0xbdf825cdbd4c5c6eU, 0x3be84e0ebdacb98cU, 0xbe347af2bdfcc715U,
  0xbe6f3451be5e9205U, 0x3e106f963d87b33cU, 0x3e8002193e667f6fU, 0x3da0dc0a3e3deebcU,
  0xbc6e64ffbdeee749U, 0x3d129302bdd67fa7U, 0x3d592c29bcdc1373U, 0x3d82821b3de772b6U,
  0x3e07de253e249000U, 0xbd11fbac3ddd1162U, 0x3cf01f37bda4234bU, 0x3cc5f084bdb12eaaU,
  0xbd8810093c73d4cbU, 0xbe3bed19be0ed19eU, 0xbe6154e4be2664b2U, 0x3d2d34c63c1940a3U,
  0x3dafd8053e5ade97U, 0x3d2f2fc53dbf743dU, 0x3ce3a6fe3c90fc77U, 0xbdc1ad5cbda45524U,
  0x3c0e2e1cbcc10651U, 0x3dce90c0bc8d8d47U, 0x3e440c733e1ce6bcU, 0xbda5af9b3e6eca72U,
  0x3c130f60bcaa1caaU, 0xbd91d4d2bdec541bU, 0xbd73b859bc905d53U, 0xbdf5a6a9bdc22ad1U,
  0xbde2d60cbe1b4a7cU, 0x3df8fc13bd6d6b40U, 0x3deb617b3d293193U, 0xbd12153d3e0ef62bU,
  0xbbd23cad3d637811U, 0xbd2ba381bdc37e4fU, 0x3d5d955e3db1ea1aU, 0x3cea3107bd527278U,
  0xbcbbc2afbd0d68e0U, 0xbd99ca8fbd043561U, 0x3d2a3fad3daa4db0U, 0xbd299451bd3b52e2U,
  0x3c99668ebdb2748eU, 0xbd477aa3bd7919acU, 0xbd96055abe2d68c4U, 0x3dea2c3abe10a22fU,
  0x3daf4f013e118c01U, 0x3e4b6f223e4eb359U, 0x3c358ca03b53c5ccU, 0x3b3517a3bd9657f8U,
  0xbcae235ebd406deaU, 0xbd863c81bdca6ac5U, 0xbe033de0be040b88U, 0xbd4688e13bd0ac4eU,
  0xbcda15413bb8958dU, 0xbd46d39fbc26741aU, 0xbdc4f9f5bdf37cbcU, 0xbcb3bde4bd854558U,
  0xbda0a1bebe1abc43U, 0xbc3ac86bbde91c1bU, 0x3d9cf4403cfea49eU, 0x3e38db753e268389U,
  0x3cfea81f3ce9084bU, 0x3805eaacbdf41c31U, 0x3cc659ffbdbeeb52U, 0xbd9e7012be125beaU,
  0x3d393637bddeaf0dU, 0x3b3c80a3bdcf49baU, 0xbe127b223985f2c5U, 0xbd32b8efbd2a9686U,
  0x3d2c32b5bd55ed20U, 0xbc54d5213d5258fdU, 0xbd3c0c77bca66fc3U, 0xbd28bbdebd357e97U,
  0x3db3e90e3bd3b11aU, 0x3c88d69c3d150a10U, 0xbc4c19c8bb0f5de5U, 0xbdd3046d3b864801U,
  0xbcef77033caea8baU, 0xbe2da8abbdd6ae1eU, 0x3c2cf462be1448d3U, 0xbd8f131fbe1021d7U,
  0xbdf5a1e6bd77f210U, 0x3d5b66dbbde5f589U, 0x3c4815a53c76c865U, 0x3cba7f243cef75c3U,
  0xbcad74a4be0b4ae5U, 0xbd912029bd05dc09U, 0x3d638c453d0a1534U, 0x3ba6a41bbcdcdab6U,
  0xbd260dbdbdfbcb5cU, 0xbc466b0abd14227aU, 0xbdabe49ebd2c6423U, 0xbdf191bbbdca6169U,
  0xbe12f3debc958bc5U, 0xbc42fde9bd36f3c1U, 0xbdcbf25ebd30763eU, 0xbdacce29bd39af4dU,
  0xbc6ad91d3d98f3fdU, 0x3d9583c7bc1cceecU, 0x3d2c3f413d8a7714U, 0x3c2b77c0bd83e9c0U,
  0xbdbde2423b4fc592U, 0xbd33f1f33ba18d80U, 0x3d46cdcabdc5c360U, 0x3bdcb206bd7bd01dU,
  0xbd0515013d9024b8U, 0xbdb0d112bccc73b0U, 0xbe24e646bdde82ceU, 0xbdc97512be0771caU,
  0xbce22d22bde1c758U, 0x3c34f4a2bdac79c0U, 0xbd33dff4bc103a3cU, 0x3de9c2e0bc9de704U,
  0x3d0c66953be1f42aU, 0xbd331824bdbd7123U, 0xbcf8aeb8b9b7f50eU, 0xbd5712d8bc0b57b8U,
  0x3db110623c46ed82U, 0xbd6601363c23a716U, 0x3d0a9bd7bc1fded1U, 0xbddff473be2ec420U,
  0xbd40b911be05473fU, 0xbe049b743dc336f4U, 0xbe120da4bcfe9af6U, 0xbd99dfe8be039807U,
  0x3cd4a1183c714a37U, 0xbbf314c83dbe82eeU, 0x3d5ad6883d0ac3fcU, 0x3c7d83e73d1bec10U,
  0x3b2bf793bd671c7cU, 0x3c63ffbebdc6bda1U, 0xbce15bfe3dc79854U, 0x3d2bdab2bd236530U,
  0xbd8726eabd8334a3U, 0xbd9063babe3c031eU, 0xbd676854bb54e612U, 0xbe0c69a1bd76263dU,
  0xbd8df491bc5c72a8U, 0xbe535b79bdf4f292U, 0xbd9e1e9ebd75fc7eU, 0x3c80f0233c4cf58eU,
  0xbdaed3d63c7080c7U, 0x3db698b6bcbdf23eU, 0xbde1cd62bcf6589fU, 0x3ad3fc89be01a70dU,
  0x3dbed0933dc5e031U, 0x3d678ec1bcc4512cU, 0xbe4d1110be29c938U, 0xbd3576cbbd9b004bU,
  0xbdb071f3bda4e426U, 0x3da4ca42bd433cecU, 0xbdd1760dbb2e2df3U, 0xbd6beb94bdc5a14dU,
  0xbc573d5ebde7bae7U, 0x3c9247ad3d886455U, 0xbc8f7d8cbdad728cU, 0x3d8de6363d67fb9cU,
  0xbd2e57af3d0fabd4U, 0xbd994130be10a8baU, 0x3d35c0023dd015a0U, 0xbc727701bd093e73U,
  0xbe4ae4cabe304ac5U, 0xbc83daddbde455bbU, 0xbbb137a1bcf12d2aU, 0xbd9bf2c9bda84ba9U,
  0x3d252b5e3b337c25U, 0xbc2f6d98bdc9a23aU, 0xbde36840bdfb7f91U, 0xbd98e93f39f54af3U,
  0xbdeced40bd1f653fU, 0x3e240ce2bb9c36fbU, 0x3d47a2233defe02aU, 0xbd6234de3db307cdU,
  0xbc7fb7dabc58647dU, 0xbdfa76a7be07f17fU, 0xbe7e2da2be23225bU, 0xbd844cfcbd3c1409U,
  0xbd9dcbc7bc7831ffU, 0x3d6cc3a4be098f3cU, 0xbce48116bd6be654U, 0xbd5a4e86be1c12aeU,
  0xbda09570bdd7cd76U, 0xbb5d2c6bbd17250eU, 0xbd6b70f43c300645U, 0xbd3a36fd3d2cbe70U,
  0xbd00bea23c07e148U, 0x3d6de89e3c93ddf3U, 0xbd9e3af4bd5839d1U, 0xbde6efc6be10ad75U,
  0xbe0b4addbe217ad0U, 0xbd98ea70bd797a5fU, 0xbd0addddbb26a59aU, 0x3d711e5abe1f34c0U,
  0x3c9a0b24bd0f6e74U, 0xbdd68381bd91e3d3U, 0xbd0f2f18be5e2defU, 0xbdb3f125bcaec802U,
  0xbc8dd902bd1c7728U, 0xbcfecc0b3d8753dfU, 0x3d8ae4be3de6d49eU, 0xba8957eabd65ca1fU,
  0xbd7394f1bcf089deU, 0xbdcaa173be095354U, 0xbd40d8c1bd1dcad8U, 0xbd85a4993d23be72U,
  0xbdf636f9bc0bb51bU, 0xbd921a28bd5c9c5dU, 0x3d5428363c0b1f78U, 0xbc6e1ff1bca00683U,
  0xbe6699fcbe4193f7U, 0xbe04ff01bdf09c6bU, 0xbde58e70be01039fU, 0xbd22cb8abdcd9cfcU,
  0xbd8c25adbd282ce3U, 0x3c739f5abd9ff499U, 0x3b0bdea9bde94fb8U, 0xbda9bc43bda1d4b3U,
  0x3c9f5c4dbd21563dU, 0xbd9b6c893d8efa74U, 0x3d123d1bbcf2e8fbU, 0x3cf46d78bd9cb331U,
  0xbd888f0f3d34dfc6U, 0x3d5ef329bad9cac0U, 0x3c4a4f623e063326U, 0xbdf965d2bdc7349aU,
  0xbd1b50acbda272bdU, 0x3cef1f50bde75073U, 0xbd7aeb613c9e32f1U, 0xbda13667be4e6bfbU,
  0x3d89edde3c00f6d6U, 0xbd8a53d8bde68c20U, 0x3d5f99db3da38d9eU, 0xbde0bf203dab3ddfU,
  0xbcba548d3da4f013U, 0x3c44bce03d1127e6U, 0x3cfaf890bd8a283eU, 0xbd91f0c0bd3f56ccU,
  0xbdd04a89bd56f9a2U, 0xbd68aabebd808ce0U, 0x3d706026bcce26c5U, 0xbc0ce67abbc7861eU,
  0xbd20feca3a218412U, 0x3d3b40163d237bedU, 0x3bc4b7c2bd01e839U, 0x3b2284c23d6e7226U,
  0xbd2051fbbb6b3d2fU, 0x3d6b87dabd9f3339U, 0xbd39a124bd7836ccU, 0xbd629e65bd5c33a8U,
  0xbc94cefc3c984eb0U, 0xbd5d1bc2bbf66600U, 0x3d7e3fee3d0901a6U, 0x3d9fd80f3d894eadU,
  0xbd3a3062bda1968bU, 0x3d4cd92ebd643ac8U, 0x3de498bd3bd02c87U, 0xbd00744d3da5ee8eU,
  0x3da2111fbd6027bdU, 0x3d0d9cfa3a2ac480U, 0x3c69f4103d195fc0U, 0x3c7fc570bcca0b92U,
  0x3d31337abd792243U, 0xbc95ae703c715a00U, 0x3d405e96bd1f818bU, 0x3d77b7ea3d1ba954U,
  0xbc8be3913d6e42efU, 0x3d117a373dd041c9U, 0xbc008abd3ce14a5fU, 0xbb7c2c98bcc21971U,
  0xbd8a60693d97c5afU, 0x3d83a818bd30d502U, 0x3d136e2a3c90ba23U, 0x3e0c9d82bd9e4df8U,
  0xbccf12f03d94d043U, 0x3dca780d3e00fb60U, 0x3d0c6b943cd6ab24U, 0x3d07669a3d94d9e9U,
  0x3d507d56bc940734U, 0x3d2764193db3697fU, 0xbcbec4f83d460c7aU, 0x3d0708de3cebca10U,
  0x3e35bc7d3db53900U, 0x3d8e39ec3e13371dU, 0x3d2db3693e453bcbU, 0x3e4107bf3e458d55U,
  0xbc042ec43e145065U, 0x38e573553ddbf4deU, 0x3e2e53773d4ade6dU, 0x3e2fc72f3ba196d1U,
  0x3ce079633d1fc1b9U, 0xbd4e7bda3d68d902U, 0xbd2913c7bd84806bU, 0xbd5ea6abbd1753bbU,
  0x3de0a143bd8d3c4eU, 0x3e0ff3523e38cc35U, 0x3dc8862c3df26abdU, 0x3d94568b3d0d81f3U,
  0x3ca69ae13d2c99cbU, 0x3db0b7753d2d73c4U, 0x3dce3654bc259ddcU, 0x3c9b12523b06af02U,
  0x3dc76a4dbd42f43cU, 0x3dda61dd3cc169cbU, 0xbaec0ef43cb7a7c0U, 0xbd0952e2bc57b3e7U,
  0x3cffc8473c8644e4U, 0xbc8a8c053d64ff92U, 0x3dd9e0cabd2a8cbaU, 0x3cbd50be3cefd41eU,
  0x3d94f78d3dec474dU, 0x3d9e5e8abb0a03bfU, 0xbccb233b3dd3273fU, 0x3d5f88e83e0fad06U,
  0x3d8574003cf92a89U, 0x3d38f9e73c4dea74U, 0xbca8079ebd7589bcU, 0xbc8cd1c03a4cbe4aU,
  0xbcd7d3dfbd985b21U, 0x3d636c9f3df05542U, 0x3c103a903d0b90d2U, 0xbd8a970c3da45a35U,
  0x3d45fe813e6958b9U, 0xbc781b68bd8d7d74U, 0xbdbeae453cc712caU, 0xbcf8ce75bcfa3fecU,
  0x3dbb3edc3c9ecf0fU, 0xbc9db43bbc923af1U, 0x3dd6e4913d5552ccU, 0xbca9b317bd1e9faeU,
  0x3c1e943a3cb789e1U, 0xbd04b251bd815dbeU, 0x3d0bcc353d08a624U, 0x3d2ca27e3e080972U,
  0xbd6bebb2bc9b13f6U, 0x3e32fcb3bda468e8U, 0xbd4eef8d3d37842bU, 0x3d3589c1bd9932a2U,
  0x3d9c2b303c953ff4U, 0xbce7a6cd3c80eeb6U, 0x3bf11b253ddcc68aU, 0x3ce950293db6b98cU,
  0xbc5fa0c53dc46991U, 0xbcfefa183dae431cU, 0xbc2a14b8bd7d1937U, 0xbd26b9e63c2bbef4U,
  0x3ddbf3773cb04046U, 0x3c0b2376bd04c57bU, 0x3d95de433bf961dfU, 0x3db444f6bdaf4cdbU,
  0xbdb46ea13e54c8f9U, 0xbd62b5e03ce47375U, 0x3d7b7468bc844279U, 0xbd120b18bcfb44b6U,
  0xbd1d9d273d146aa9U, 0x3d8c55033cba2bceU, 0xbd212a1f3d4055d7U, 0x3d76a5a23ccc2ac9U,
  0x3d20999cbd435a9bU, 0xbe01206cbc6281f6U, 0xbd9f94573d2d83cdU, 0x3c0d22ea3d28f3adU,
  0xbd31cf83be1cfe4bU, 0x3dab7594bd6ba0f3U, 0x3d3e3e563d815605U, 0x3d7d9e153d851f5fU,
  0xbbeff85c3c1ecf61U, 0x3d9c7afd3ce015caU, 0xbca46bd5bd89ffb5U, 0xbce3063b3d50db14U,
  0xbd4d1f30bcbae445U, 0x3d1ebefbbd8fd016U, 0x3a5cecf63c7237f1U, 0x3d84928a3d543c09U,
  0xbdd07b6fbb2593aeU, 0x3d2625933d49e3c3U, 0xbe00de9c3d089835U, 0x3dfa3ca1bcd0a5cbU,
  0x3d07ba903e1bcdddU, 0x3ce60eccbca74fb5U, 0x3cb02ac8bd2fdfd2U, 0x3ce75b103d736a8eU,
  0xbd99c3febd4efe46U, 0xbb75e8a03ccc4d71U, 0x3c40ba2c3b43d556U, 0xbb3a596b3c8d5a4fU,
  0x3d710955bcf0a860U, 0x3d5744d3bc2323d7U, 0xbe0193c63a841d0aU, 0xbe09d989bcd37003U,
  0x3ce0a4eebd58e03dU, 0xbcf17dfdbde1e6d2U, 0x3d85c4413dacea42U, 0x3da7db65bc7a1354U,
  0xbd1ec838bcc8b889U, 0xbcf0e3be3d04b2b9U, 0x3c80af6dbd1f79d6U, 0xbdfa41b83c8aca01U,
  0xbdb203503ae50325U, 0xbd450cc93c61f93cU, 0x3d84b7c93d450fc9U, 0x3d907f633daf090dU,
  0xbd48a84fbc94c12bU, 0x3d5c6b3c3d5333f5U, 0xbdcbffe1bd86f298U, 0x3d401b40bdea687eU,
  0x3dba6c3a3d119ff6U, 0x3cf2b5043c0d3e7eU, 0xbd0487f83d056f78U, 0xbd2ca490bde5f94bU,
  0x3d286a1ebe0444c0U, 0x3d5878cdbc6c29beU, 0xbce6515c3d5a0b6dU, 0x3d3f06f8bd8d84ccU,
  0xbd59aa053dc79d0eU, 0x3d4e6cb13d368451U, 0xbd4794683cc22b39U, 0x3daca3ce3ca5aa07U,
  0xbd7a873bbdc2894dU, 0x3d6b69f6bd79fab8U, 0xbd5b375f3e014da0U, 0xbc02b0e2ba3b366aU,
  0xbdb49280bb93d22fU, 0xbdb5506ebe0adebeU, 0x3c80bb96bd513ab4U, 0x3db84b203d86ffe9U,
  0x3de046923ac30fe9U, 0x3d4f60e7bd1b7374U, 0x3ce40cf8bd458708U, 0x3c1962043d9e7918U,
  0x3dfffca83c97e530U, 0x3d9e319d3d5ab59cU, 0xbd7fde653d8c301eU, 0xbc43ba6cbe04694fU,
  0xbde2134cbd6603a7U, 0xbe2e6291bdcbeaa3U, 0xbc0c9e9abdb23904U, 0xbd5738eabd91c27aU,
  0x3dcbab22be06a839U, 0x3da7a2cd3e0bed99U, 0xbcb8f5c43e11eb15U, 0x3d937064bd2bcbc7U,
  0xbd24aaa13db63f13U, 0xbb35f57a3b42888cU, 0x3e177acb3e15e457U, 0xbbbf6aef3dc53831U,
  0xbd9d3d5dbc250a19U, 0xbd526fdfbd49257dU, 0xbd06321fbd993572U, 0xbd48f360bceac6deU,
  0xbd94c7083c8d6d3aU, 0x3d9ee153bbf61709U, 0x3dfd69b7bd8d4a40U, 0x3e12aae63e0a841dU,
  0xbcf06ba13e064540U, 0xbd3c5d083d31434aU, 0x3d22f7d83c6a354eU, 0xbd4c9adabbacaba4U,
  0x3d90da4dbde910baU, 0x3d426ce93e61fba0U, 0x3bf7b243bdcdd5d0U, 0xbd0bec41bde99e25U,
  0x3c6f385bbd91658fU, 0xbdf30048bc6d3c3bU, 0x3d0bb50ebdef7a06U, 0xbc3dc511bd0420b1U,
  0x3e40344e3da6ee2bU, 0x3d78ac6c3deb2a9cU, 0x3ccf853b3cf94244U, 0xbd53cfbabd8c2acfU,
  0x3cba605cbda45e8bU, 0x3c5fce503c94b1cbU, 0xbc07a0fe3cdb870aU, 0x3d1d51ba3d296a34U,
  0xbd1d9a9d3d18de9aU, 0x3d0109cebcfcdd50U, 0xbd1f5edabda79d01U, 0x3d7fc2fdbc4fcdabU,
  0x3d863d26bd69fdecU, 0x3dd362553d6f0062U, 0x3d0a4df23c9c0630U, 0x3dcc3bf53db20e98U,
  0x3dab923b3e02c128U, 0xbdb522043d4a51afU, 0xbd5fed10bd6c8006U, 0x3d193addbcb3970fU,
  0x3d47015fbdcc3e2dU, 0x3d732fa93d205d5dU, 0xbd94d5ce3d191b26U, 0x3dc4de4bbb9dece0U,
  0xbd0c494ebcfbee25U, 0xbd0732dfbd2fbe79U, 0x3d4bf5b73d282627U, 0xbd4bab97bd537504U,
  0x3d9d41c53dac9a75U, 0x3da2935e3c545d74U, 0xbc6065e63b642849U, 0xbc6b0301bd902e68U,
  0xbbf328fabc247b37U, 0xbd76f272bccac93dU, 0x3e3519943d12cef6U, 0x3e13334a3b4c2499U,
  0x3db482873da43929U, 0x3c0f1e2a3d810084U, 0x3d6151d2bd2dfff4U, 0x3b628fa13c7897f2U,
  0x3d472f4cbcddbae8U, 0xbd0f6900bca9ffaeU, 0xbb5ee2bc3d7a033cU, 0xbd1b84093de3e2d6U,
  0xbd71b5bf3da2eab8U, 0x3b0ba6ba3d69ac84U, 0xbd62a60cbbe808b6U, 0x3bc1a650bcfbe428U,
  0x3d9e55b43c47dc69U, 0x3cb7f4583dc4df18U, 0x3d9fef4abdacab8bU, 0xbc607a0fbd4263d5U,
  0xbca4c4d1bd42828fU, 0xbc8de418bc2b180cU, 0xbc21803bbd7d96e4U, 0xbd0b515d3d76dd3eU,
  0x3dfe7a16bc9b4451U, 0xbb9ed1173de0ce8aU, 0xbd1f09b63d8d4cf7U, 0x3be9d5f9bcd8a496U,
  0xbd8b4845bc0b702eU, 0x3d8d5e80bd4dc441U, 0x3c26349ebcac23bdU, 0xbc27598d3d4315eeU,
  0xbda777cebd488815U, 0x3dd862d93c6d59d3U, 0xbc2f4291bd3b53a6U, 0x3e0581de3d72b945U,
  0xbc6b457a3d0c1d80U, 0x3dd476b4bb6d474eU, 0x3d8c8ddc3c56747eU, 0xbcebab673dc89b97U,
  0xbd03d8053bf8ffcbU, 0x3cdfc6bbbd4ee511U, 0xbd35f93abd6f45a4U, 0xbd22b879bdb5899aU,
  0xbc4d3d85bb27df3cU, 0x3c73e08fbd78f9b5U, 0x3d45ff87bc7206c5U, 0x3d2514193c633056U,
  0x3cbc78c03d6062a1U, 0x3ce5861b3d9bd856U, 0x3d6bb6c03cff81aaU, 0x3db25aa23dc00c3bU,
  0x3de06c8c3d9034d3U, 0x3d479094bc8371ffU, 0x3dcf3b5b3d95835dU, 0x3c872ad53d814fe0U,
  0xbd90505ebdc3151eU, 0xbcb20147bd260433U, 0xbcbb26f2bd79f5bcU, 0xbc010ac9be108d03U,
  0x3b4b618f3d40f336U, 0x3d997e7e3d7e1518U, 0x3d9a57c03d87a758U, 0x3daf069c3dc370fcU,
  0xbca902803de432a4U, 0xbcfd36283dcf4f7bU, 0xbd9769373c977d04U, 0x3c24d280bcf5fe70U,
  0x3c8d3a6abdaeaf84U, 0xbdadea8cbd88f347U, 0xbd248579bd6653b0U, 0xbd12dd0dbbf842a2U,
  0xbd087ba8bdb1a3d7U, 0xbd0a5cabbe07a84aU, 0x3d0ab1ca3cb26f34U, 0xbdc669e1bce63592U,
  0x3d85f6ba3d2daad3U, 0x3d8cfae13d83d506U, 0x3d7484943d7c9a15U, 0xbda39d853c2f4310U,
  0xbd7e85643c8990a0U, 0xbdab5f49bd914b25U, 0x3d7ac85cbd1402e4U, 0x3d1467b83d16e1adU,
  0xbce18e773c6c97caU, 0x3d96061b3e16aa57U, 0xbda296c53dc0fcd8U, 0xbbd6ce00bdf83f97U,
  0xbd46d31ebcc19dd2U, 0xbd6e2fa7bd4e0661U, 0xbd0921e43c87235bU, 0xbd71473cbd2c4b75U,
  0xbbf3e71f3d1f5e44U, 0xbbaf4b3cbd3b4279U, 0xbc4ac38bbdf3ba09U, 0x3c6bdc7cbd9332abU,
  0x3bf6cf41bd4b3f96U, 0x3d3d708bbd2f5b7fU, 0x3d3d547e3db4cc95U, 0xbd28d13b3d674298U,
  0x3ddd9516bc44549bU, 0xbd2c23bb3db2a817U, 0x3d0709623d8a7b2dU, 0xbc761af23dc3c845U,
  0xbdae2510bdc75edcU, 0x3dad7b5c3dd265feU, 0xbd804edbbc6959d5U, 0xbde9e5c1bd5fc855U,
  0xbd1368f1bd770fefU, 0x3e14feb63db8c70bU, 0x3d5514a73c053433U, 0xbcc8b38f3d3adc50U,
  0xbdd4f0f13dc00ae8U, 0xbd8c723dbe0c0b59U, 0x3b1a3dfcbe037bd1U, 0xbd825c48bc12dc95U,
  0xbd92904e3d471296U, 0xbca323ee3cf351d0U, 0x3cd5e1083caffac5U, 0x3df5ff5e3d88b36bU,
  0x3df13b423e818a05U, 0x3ddbcffc3dcab0f7U, 0x3de4d5333da2262bU, 0xbc58b3813e4f8d95U,
  0x3dba701c3ba6a611U, 0x3dda975f3e0d8659U, 0x3cf8707f3be11df2U, 0x3ddce0673def6f2dU,
  0x3c5cf0afbc21c94bU, 0xbcfc93063d73d4feU, 0x3b059880bc3f2980U, 0xbd7d86a9bda3ef5fU,
  0xbc708f903cd9b6fcU, 0x3d575a273d80fb9bU, 0x3e286c223c1a49b7U, 0x3cfaa2a0bb7d218aU,
  0x3c68e9db3d7222ecU, 0x3e4b4e7e3dec6649U, 0x3da68cbe3d2cd3bbU, 0x3dcf88523e271608U,
  0x3de29ede3db2fcb0U, 0x3cdadd333db06567U, 0x3bc9c9203d193fe4U, 0xbce0089cbd58b4f2U,
  0x3d0649023d801403U, 0x3c01b7383d60de02U, 0x3cedb808bd29c643U, 0xbd4c42453d719cd2U,
  0x3d660df6bd8542eeU, 0xbb409f203d143ee8U, 0x3dde602b3da39d20U, 0xbd9b0808bc1bfe44U,
  0x3d27520a3d966a83U, 0xbc457198bd872ac3U, 0xb9a1e0003d892895U, 0x3d67abe2bd872104U,
  0x3d8e48abbda0cc77U, 0x3d1da252bc68fb60U, 0x3c1a2328bd65f3e6U, 0xbc6f66083d95c341U,
  0xbb7bbbbc3d0c699eU, 0x3e0642dc3d8ea3edU, 0xbaa28c993e194107U, 0x3dae49c43d7a8350U,
  0xbc958ee33d02565bU, 0xbde3214ebb628c88U, 0xbd2a3888bcec71fcU, 0x3de69a903e1e8379U,
  0x3d3e1d9b3e6068f6U, 0x3dd91dcdbbf3a5baU, 0xbc6536b83d5dcd3aU, 0xbd319832bd880018U,
  0xbd8579c83d192914U, 0xbd1241563d3d5026U, 0x3ce582c8bc8e02d5U, 0x3d84bb8b3bf9c162U,
  0x3dd252a63d93be09U, 0x3de566593dbceab9U, 0xbc9e43103c5db9a6U, 0x3d02c4b33d4a5f20U,
  0x3c5a463b3c7dddccU, 0xbd87917d3df08759U, 0x3e154dc23dcac301U, 0x3cc266cd3daa7137U,
  0x3d0dd1b8bd65f650U, 0x3b17dda0bd155c4cU, 0xbcabc1a03d835315U, 0xbd786c9e3c080b3fU,
  0x3d1422143d946889U, 0x3d7f7fe03e034d34U, 0xbcdbc53b3da9e6b5U, 0x3abf3e6e3d42f14dU,
  0xbc17114e3c09648bU, 0x3de080773c541840U, 0x3c24ec73bc3b6f24U, 0x3d60d8b63e158d2fU,
  0x3e47d3b23def480aU, 0x3e40e0643e05e280U, 0x3c9b38d53d937198U, 0x3da5abb73b942d0dU,
  0xbd16390cbc47dcf8U, 0xbd4c0be5bdf12423U, 0xbe04bcd33c833001U, 0xbdbfc42cbd2e9de5U,
  0xbdcd103cbe2af036U, 0x3c293f53bd73791dU, 0xbe049d463c6ce50aU, 0xbd963cb7bd9d74e9U,
  0xbc9e4701bcf18b79U, 0x3d6fd30c3ddadb0bU, 0x3d1089f63ddb0ab8U, 0x3dfc9e883ce98432U,
  0x3df8d71e3e5b6886U, 0x3e1833c33d2da1e3U, 0xbd933e973d8033a7U, 0xbd967fedbd16d4c7U,
  0xbe1d5b75be017951U, 0xbd9ba945be0e3994U, 0x3cbf67143d9ad8d4U, 0x3d83a2aebbd0b646U,
  0x3dbbb3643c819a41U, 0x3c42faf53d85a5c5U, 0x3d885d013d840d1eU, 0xbd6987463d99613dU,
  0x3d4680dd3d380154U, 0x3d5ae219bcd5335dU, 0x3e40c4f83dc4062aU, 0x3e106fde3d472a2dU,
  0xbd56057e3b739780U, 0xbe0b72343dce9e6dU, 0xbcc693e6be23685dU, 0xbdb055a1bdc267a6U,
  0x3a0464423d30bac0U, 0x3df1dd763d7d2bf0U, 0x3d4834603df42c54U, 0x3e1995903d53611bU,
  0x3d4123c73d3eb4b7U, 0x3d381f5dbce21012U, 0x3ca8c3853d3b2022U, 0xbd492faa3c0d5c98U,
  0x3e2b9c773df3d800U, 0xbaceb3a83e028520U, 0xbe0e5accbd14fa3aU, 0xbd19e2ea3d9085f1U,
  0xbdf23233bd935ea3U, 0xb9582f70bdc75fdbU, 0x3d0bc6c63dbc612aU, 0x3dfe935d3d92cc7fU,
  0xbb23436c3ddc4d64U, 0x3d83504bbb248e37U, 0x3de4be02baebc807U, 0xbd4c73cb3df0ec18U,
  0xbc0dd49e3ce692efU, 0xbd8fb000bca726f0U, 0x3e09cd17bdbb4c86U, 0x3cb416bebda7a702U,
  0xbe04b3b4bd5b3e00U, 0xbd020873bcd63b94U, 0xbdca10f9bd91fe1fU, 0xbd263a9b3d8b3ee4U,
  0xbc94a720bb4727d6U, 0x3d1e0943bd3bf889U, 0xbd5bd873bcfa553cU, 0xbdd7c4b0bb6d5cb4U,
  0xbd87e65ebc2f7240U, 0xbc90f44ebd2b99bbU, 0x3ceebed8bd9afd5aU, 0xbdd1ccc8be04b504U,
  0xbdb6d423bd9c11c4U, 0xbbb00acebcf28949U, 0xbdeaa9b5bd0979edU, 0xbd8f9e7cbdfda81cU,
  0xbba7716fbdf045caU, 0x3c884fe83d7b04f3U, 0x3db446ce3cd1e638U, 0x3dbcb6c5bc8a1514U,
  0xbdee324ebda64365U, 0xbd6921a53b76464cU, 0xbdc7007abe67f70fU, 0xbd5d337bbe06bda5U,
  0xbd18c64ebd895b96U, 0xbda1d6adbe2e3e83U, 0x3d17137a3d3a6165U, 0x3daf84463d95b533U,
  0xbd9df6ad3d27645fU, 0xbd857e95bce9eedeU, 0x3d980892bd76ed33U, 0x3ba3e9e63d58e8e8U,
  0x3d7f57003bf95aebU, 0xbcdb6bbd3d599fafU, 0xbe2cd2e4be05b3f5U, 0xbe33761bbe2f1458U,
  0xbe4b1f07be61e19fU, 0xbd88c4c4be28c730U, 0xbe24f85dbe26990eU, 0xbc99947ebe16b015U,
  0x3c9756923ccd1974U, 0xbd9118f23dc25ab6U, 0xbd9f3ac2bd234e78U, 0xbe20fd96bdfa1f24U,
  0x3dff7714bd8bf1c0U, 0x3da937c73d3e6812U, 0x3e1346893d596fc1U, 0xbca53a2c3c80aaaaU,
  0xbd118e93bd81d164U, 0x3bd4b27d3b9d8363U, 0x3d65b2a63d9d116aU, 0x3c50b4d2bd5f135cU,
  0xbdd41ab8bdd96998U, 0x3dd4673ebd2dad14U, 0x3da608923dfdb9c6U, 0x3d5f216f3d2592fcU,
  0x3b0c0446bda12036U, 0x3da8b556bdccc65cU, 0xbd5b90e0bc88b1f8U, 0x3d9e45993c97f7c4U,
  0x3df3d6313d76daedU, 0x3da66e623da71db7U, 0x3bf282b5be06d823U, 0x3cf628913c823109U,
  0x3e0cd3f93d4b0c2dU, 0x3dae2b703df5852fU, 0x3c98f69d3a565032U, 0xbd2db6a13b8ba7e1U,
  0xbd3278d9bd8db2c8U, 0x3cecf68a3dc8b860U, 0xbddaacd8be072c11U, 0xbd5b23fabe19b5b3U,
  0x3d1caa153dc1e584U, 0xbd04a389bd5fec5dU, 0xbd3475c03d86a620U, 0xbd0bb4de3dfee7d0U,
  0x3cc3460bbdbf449cU, 0x3dbc7d6b3dbb794bU, 0x3dbe79a93d3e2854U, 0x3df2ced93cb9cbe2U,
  0x3c6381ebbc7034dfU, 0xbbc2d7dabd24f157U, 0xbc70fe84bd02fc80U, 0xbd854964bdb01539U,
  0xbc86640ebd8a466bU, 0x3be84a24be2b7b54U, 0x3d1b6945ba9cf37dU, 0xbd0f240d3db1f593U,
  0xbd59cc4ebd6d824bU, 0x3dabd1c53e0c18cdU, 0x3cabda5bbd974741U, 0x3ddb1159bc756022U,
  0x3c7a7fa13df6248eU, 0x3de2eca83dd7c772U, 0x3da274e03d4a4e28U, 0xbd87ecf13d31670dU,
  0xbcc974463d063605U, 0xbd0bc0d1bdef26bfU, 0x3b64d72cbca21f0dU, 0xbb90f11abe540f2bU,
  0x3d07750bbd93161bU, 0xbda99bd03d0d4d2dU, 0x3d5203653b055d79U, 0x3dc38db03dfcee88U,
  0x3d4d2165bd2d4751U, 0xbcb6f973bd971eaeU, 0x3c71cf493c6da27bU, 0x3ddcb8e43d9044a1U,
  0x3cff0a483d194efdU, 0xbda486a5bdea83a7U, 0x3d303533bdac689eU, 0xbd2d20a3be324cffU,
  0xbc5e2141bd8b4853U, 0xbc63e24ebda46760U, 0xbdab6e35bde352f0U, 0xbe02ac933d4ae9c4U,
  0xbd83dc9e3cd2f028U, 0x3cc6f8393c638a5eU, 0xbd86bc093d9d31c3U, 0xbd050ca0bdd77063U,
  0x3e086f7a3dd8fc08U, 0x3d64c1e03de52e1fU, 0xbd296f2f3dd54e53U, 0xbd97b151bd559791U,
  0x3e0c0efcbd8aee29U, 0xbe38e43ebdfc3c31U, 0xbda56eac3d2713a0U, 0xbd0a4179bb86b6a2U,
  0xbd9038f7bd42e1d8U, 0x3c8a8dc93c9fc639U, 0x3d1857fd3da1f22cU, 0x3db2843cbbc757aeU,
  0x3d5758093d6129e0U, 0x3cd694ca3cb24ff6U, 0x3dabc9aebd2b51dfU, 0xbba8d0fc3dbf7ce3U,
  0xbb4bf6dd3da6b17dU, 0xbd5ff98bbd7251fdU, 0x3df5a11ebe188c96U, 0xbdccd5173d91b490U,
  0xbc6ba72b3d92df8dU, 0xbdeb5f44bde325f2U, 0xbd00f760bd1ea86dU, 0x3db6685f3e0452e5U,
  0xbb397c2ebd89f3edU, 0x3e0100fb39835173U, 0x3d0052dc3d5b0a90U, 0xbda7bcf03d8d927dU,
  0xbcbcb9683d2cfed9U, 0x3d17a4e5bd454a46U, 0xbd3807b43d358b56U, 0xbe1ba3c3be1de976U,
  0xbd8402e1bdc25cc6U, 0xbe0814a33d24831eU, 0xbde96cdcbd537582U, 0xbdd44aa4bccf17d6U,
  0x3d61d8583c74dca2U, 0xbc98aebb3cf559cbU, 0xbd3f7d223d02c7afU, 0xbd3b1f013c9987d4U,
  0xbd287a2dbcf1e01eU, 0x3d5eb1b5bcbee991U, 0xbd4da916bda45b44U, 0x3cce27003d87b7dfU,
  0xb9c6451e3c15de51U, 0x3c01613cbdfa33e9U, 0xbdbec37dbcf41260U, 0xbd4d899bbceac968U,
  0xbdea344a3c320350U, 0xbd826eca36253578U, 0xbcfb65503d799e39U, 0xbd86b214bd3df8b5U,
  0x3d1939c9bce66ce3U, 0xbdccd6a7bdabda28U, 0x3d0b6c113d4c316fU, 0x3c3ee945bc92d558U,
  0xbe062e893c819558U, 0xbc2b92d1bdaca5f9U, 0xbd82a62abde9b663U, 0xbd8b123ebbefd86fU,
  0x3d6c438e3c2883eaU, 0x3a355190bd9cf905U, 0xbd622f10bdc8a558U, 0xbd808f9e3d4a0456U,
  0x3c94aa853d757a64U, 0xbdbe26b9be08cc59U, 0x3d074066bd237928U, 0xbd42de1cbd254044U,
  0xbb9f4cce3dc2f487U, 0xbd06023a3d2b9d14U, 0xbd75316abcd21bc4U, 0xbd04f59bbcd2444aU,
  0xbdd12908bda4ea0aU, 0x3dd0d226bd38d566U, 0x3d9ecbc63e0352bcU, 0xbaffbe54bd296e44U,
  0xbd5bfbf8bd30ba1aU, 0x3d6f20c33d00408cU, 0xbce728763d5f97b0U, 0xbd7a5908bdf520a3U,
  0xbd89a361bc26091bU, 0x3afed3e53c46fe75U, 0x3d371a703d4d0fbbU, 0xbd1562a9bd785f1cU,
  0x3d5c71423d9d7381U, 0xbb6232d3bd216804U, 0x3d207b983b768dc5U, 0xbcb348f1bd858869U,
  0xbd49df243da46f66U, 0x3d108ee13d85ba3bU, 0xbd297eb33caa34d4U, 0xbc7c5edabe0210ccU,
  0xbbeaf21f3dcae98cU, 0xbcc413af3cc18e1aU, 0xbceaf9c23c38a853U, 0xbc514c3a3c7983ceU,
  0xbd8f13f0bda012a2U, 0x3cb0add73b133323U, 0xbd5fcd7cbd204b09U, 0xbd472c65bc4e6cd4U,
  0x3dc1d4993cc174b1U, 0x3e43baa33d453973U, 0x3dcb2d5f3dd8ec1cU, 0x3d23d77c3d0fd849U,
  0xbd93c1a83d5a9d9aU, 0xbdc701acbc5f07b4U, 0x3c438c4bbce67f0aU, 0x3d9a409cbd0ae68eU,
  0xbbf7e3663d71df1fU, 0xba06e5f53d873fdbU, 0x3d0509fd3cb96b03U, 0xbb8bc77c3d26ca76U,
  0xbc1fc2b33d17fdd1U, 0x3dbf5dc7bd5ca113U, 0x3c4ba8a23d58376cU, 0x3da001583e0c86cfU,
  0xbd86eb553e24f178U, 0x3cdff300bdd0bce7U, 0x3cf7e86c3d4abd3aU, 0xbcc82444bd345358U,
  0xbc7f0c983be3164eU, 0xbb4011fc3ca14beeU, 0x3b09016abd237f7cU, 0x3e3a41393e0255ffU,
  0x3bb6532a3dd0c205U, 0x3d8d84c03d63d2e0U, 0x3d06e6013e1c4d96U, 0x3bd539c93b1a65a2U,
  0x3e11b96b3dd15af1U, 0x3e1aede43e057c0cU, 0x3d2e69543e13ece8U, 0x3d1a7cf4bcd89abeU,
  0x3da363f33d4d56aeU, 0xbab83b863d10d94eU, 0x3d4b1ee63e112896U, 0x3df51e3c3caf9ee1U,
  0x3dbd32293da6b17aU, 0x3e0694703d7daa55U, 0x3e0ccaa93e4b7fc6U, 0x3e36772c3e5c5c18U,
  0x3e2f7b113de7343bU, 0x3cbe449f3da6d639U, 0x3e4dcc013e4732adU, 0x3df648c83e128210U,
  0xbd7e586d3ca163e7U, 0xbced079cbb327320U, 0x3d9a0919bd50d412U, 0x3cd33664bd458c15U,
  0xbdbd81863d06fecdU, 0x3cb5e5373d79de4dU, 0x3da920fcbc88b19aU, 0x3d99fac4bc5f1649U,
  0x3d12430a3dfab263U, 0x3d53d5f33e221a59U, 0xbe0179dbbca8126eU, 0x3d374f613d86e6c7U,
  0xbcb960d3bccf1050U, 0xb9e213703d6ba2a4U, 0x3b83e950bc2c3070U, 0xbca98f2abca33cbaU,
  0xbd5ad57cbab9b340U, 0x3d4bd37a3d4aae62U, 0x3d80f3753cfbde50U, 0xbd51370b3d864a59U,
  0x3d7d495e3d281cd0U, 0xbbdfe870bda0bd8aU, 0xbd56faf4bd8e542bU, 0xbd2c0508bd5994a6U,
  0xbd90fcccbd869822U, 0xbcf8498ebc013680U, 0xbd910f74bd549713U, 0x3c80df20bbfc08a0U,
  0x3cecb6043b9ddbd0U, 0x3d97208f3d1c165cU, 0x3d2775eebd9dead0U, 0x3c46d9503c008678U,
  0x3da53479bcf26d94U, 0xbda0c9633b69b035U, 0x3d193f7bbc2030f3U, 0xbcb090973d8a32f3U,
  0xbc33468bbcbd98e1U, 0x3cc62a2abe2d6be0U, 0x3dc3cafebbc6a4deU, 0x3d0b4d02bd19c1b7U,
  0x3c85728cbd978392U, 0x3d869d873aa77e24U, 0x3da447533d2ab29eU, 0x3d0f3c88bd9af031U,
  0x3c2be250bd961e39U, 0xbc601f423ca4e280U, 0x3d43922a3c869bd3U, 0x3cc441dbbd761397U,
  0x3c2340f1bc7780b8U, 0xbc36e2f03d97ffb0U, 0x3c49bc25bd98971dU, 0x3d6f550ebdfb3452U,
  0xbbd5e0493dd6de97U, 0xbdb7f48abd80b3ecU, 0x3d32ed1fbe26e05aU, 0x3dd6be393d334ce1U,
  0x3b80dab63c99469bU, 0xbd76dd59bd63887aU, 0xbd7b84b4bd868743U, 0xbdd2d0f8bdd42d99U,
  0x3bfd8872bdd23940U, 0x3d5ad96cbb51e7d7U, 0x3cd3ca3f3d988db4U, 0xba16007e3d0e9542U,
  0xbe0bb67abbaacbecU, 0xbd114542bd0ebd13U, 0x3dc1e646bc3c4e46U, 0xbe373072bdc281beU,
  0x3b85a31bbd7cdd16U, 0x3da21f3bbd9695e4U, 0x3cbc7aba3d0ea4fdU, 0x3cc3b300bde5bea1U,
  0x3d971cef3c962f7cU, 0x3db6c0c3bc380b21U, 0xbb89421e3d2accacU, 0x3d9bccc13ca2e3f3U,
  0x3d916f8a3dc8a718U, 0x3d8f4b5abd5ecb55U, 0xbd521e09bc964f86U, 0xbe0eb224be13b0c8U,
  0xbcba6a1cbdf4fb92U, 0xbe1b4dc03c881c70U, 0xbde6a4bbbd43b266U, 0xbc0794663cb9b377U,
  0xbca9e98abd57f865U, 0xbda13286bcbb776bU, 0xbd964b043d680546U, 0x3d9a964abdce1442U,
  0x3da1a40ebd10e427U, 0x3d8e84d03d2b9a55U, 0x3df15ea03d965217U, 0xbd996b713d5849b6U,
  0xbd21ec77bd4fb70bU, 0xbca503dabd8142b2U, 0x3c54790e3dacf160U, 0xbc3f48b0bd0f3b24U,
  0xbccb74b1bda11518U, 0xb9f9ee49bddcd624U, 0xbdd96122be1b0e3fU, 0x3d97546dbcc7d635U,
  0xbc170ac83d9238f3U, 0x3dc489503da4d928U, 0x3d8f3bbabd6affddU, 0x3ccb242cbdcfd89fU,
  0x3b19aa42bd07cc96U, 0x3b4274c5bde34d8cU, 0x3d8f67c0bdb07df5U, 0xbbbdcac83dee06ceU,
  0x3d6cebf03d3ca196U, 0x3d1a5a5fbb861f04U, 0xbdb1bea0bd945e4aU, 0xbdb63409bd491608U,
  0xbe4d7180bd963715U, 0xbcf07cadbbd3e48cU, 0xbdbf7a2ebcb3098eU, 0x3ae9912bbb7d716cU,
  0xbdb3f54bbdb5aef6U, 0xbd94647fbdd12922U, 0xbda7fe50bdda3972U, 0x3ddacfb7bdaa11d5U,
  0x3dda8ba53e19344fU, 0x3bb1f4b83d4e9874U, 0x3cc128ec3cc12521U, 0x3daae1ccb949ad2dU,
  0xbd5cf1863d35c27fU, 0xbd249eaabe4c9104U, 0xbd9b3bbcbd8d9ccdU, 0xbbe1c202bc97c657U,
  0xbde0bfcbbca06df1U, 0xbabeed263db7512cU, 0xbc16a46cbd012aa9U, 0xbe36f8b1bd05e094U,
  0xbdaee3e7bce3ee9aU, 0x3d5a973abcdf14daU, 0x3d7d1d3f3daeeb46U, 0xbdd052803d8aa497U,
  0xbddeae8ebd4d62a7U, 0x3e41ebb53db76facU, 0xbc8a26c03dc48a5fU, 0xbdf47941bd9dfb50U,
  0xbdc8a5c8bda5fc26U, 0x3cba2e9cbe0b4906U, 0xbd4e9649bd4febd4U, 0xbe17ef783d9a7e76U,
  0xbb87e227bd8c4359U, 0x3baedbf5be105edbU, 0x3d13d8c1bd80df9cU, 0x3dc870823dd01724U,
  0x3d16bf64bb5228c2U, 0xbd6e8be63c0d0118U, 0x3d29de53bde0b6d3U, 0x3e2c16293db189b6U,
  0x3d83aa293d9b95d6U, 0xbd4fb5e9bd82220aU, 0xbd25a2e8bdf4c7a9U, 0x3d1acfdebd814eb1U,
  0xbcf8b8febd7af045U, 0x3d85e6dc3d8b92f2U, 0x3d2f8771be002439U, 0xbce6689d3d2564a4U,
  0xbca53a263d9ada95U, 0x3ce7d9133d35c7ddU, 0x3df21f3ebb13832fU, 0xbd32d033bc240173U,
  0x3d5b34d1bd937715U, 0x3e3714173db7e87aU, 0x3db79d543de3ed9aU, 0xbd86fe8cbacd256aU,
  0xbd2d054dbe07c888U, 0x3cfe6884bdc5422fU, 0xbdef89d43c63a4a8U, 0xbd80bef6bde0d357U,
  0x3de845febd3aaf0bU, 0xbd0a2a953de4c797U, 0xbd24f2063db4c61cU, 0xbceda3ed3b85261aU,
  0x3d9fc05e3d20d154U, 0xbd843ddcbc0a4997U, 0xbd9a64613cdb2ad4U, 0x3ca9c0913d871f61U,
  0xbca9a1fc3e0a0b3cU, 0xbe0bc8e4bdb5f422U, 0x3ce46d0bbcd737e0U, 0xba44eb94bdeb926eU,
  0xbdbb53973d76f70eU, 0x3dc7495dbd6a4641U, 0x3db0cd75bd5e81d3U, 0xbdb6f5b43d80e79bU,
  0xbe151211bd97eed1U, 0xbcdc1294bcff0b20U, 0x3d0a077c3d314bf9U, 0x3d87a7613d3539e0U,
  0xbd497ebd3d173b94U, 0xbd3c0ce43d8efdd0U, 0xbd353795bcaa2b24U, 0xbd2a2168bd83aa35U,
  0x3d16e6433de032b7U, 0x3b7a5fe3bd5bc6ebU, 0xbda157c6bcfb2333U, 0x3e292cbbbd98b273U,
  0x3acc82983de8577fU, 0xbd1e4fa23d015d00U, 0xbde236ebbd8f48acU, 0x3a9aacffbd7b5807U,
  0x3d2f3126bb581e78U, 0x3cd07c113bf575d3U, 0xbe103dd03dc32776U, 0x3d081ab3bceb4724U,
  0x3c6def7dbc49ac8aU, 0x3db33332bdad564eU, 0x3d0f9b233c5a7264U, 0xbdb18a793cfa207cU,
  0xbe06cfa8bdcb978fU, 0x3ca94e39bde213feU, 0xba48a65e3e06f7a5U, 0xbdfac520bbc2aeddU,
  0xbe18d9ffbe3fed9fU, 0xbe23198bbe013389U, 0xbcd264dbbd823181U, 0xbd0679c5bdd2537fU,
  0xbde805793c405ab7U, 0xbd577013bc165413U, 0xbcfb88433c83e2c3U, 0xbba50984bc2388d5U,
  0x3d0f5cef3d48b4bdU, 0xbcedccaf3c04f25fU, 0xbcf805b3bce8c7c3U, 0x3de3d731be1039a9U,
  0x3e04302c3d54901eU, 0xbd80eae9bd8607e7U, 0xbd71c2b7be1df38bU, 0xbe190175bd678691U,
  0xbe12dc06bdf8907eU, 0x3d8bf0f9bd049087U, 0xbd1defcbbce7203cU, 0x3d5c26c0bcc1ed4fU,
  0x3c956bf03d2eaf6bU, 0x3ce5bc5f3dbb6a57U, 0xbd8d78823df46e04U, 0x3d45b5b93d208b35U,
  0xbc92af363c1d6178U, 0x3d682bbcbdc32a15U, 0x3ddb98c53dfe3cb6U, 0xbc8c2491bcbe91b5U,
  0xbd6563febd10bc73U, 0xbe62ad14bd903de4U, 0x3a1dc368be0460acU, 0x3d8136763ddfa3fdU,
  0xbd6854afbdb8eba1U, 0xbd4d4614bda1fe75U, 0xbcbbe9743cc15626U, 0x3db57c0b3df546fdU,
  0x3d2ffdffbcfcdfc2U, 0x3d8356593d7028d9U, 0xbd9ab7973d5c17beU, 0x3d2cbdfebce7d900U,
  0x3ba1383b3dae4390U, 0x3c1557b9bcc3aa5cU, 0xbd7065773d7cae44U, 0xbe0109a9bdf94273U,
  0x3d996c763d809be6U, 0xbd38a018bbf6f7e0U, 0xbd434c46bde38056U, 0x3d5ba701bccfc7d9U,
  0x3c8c6695bda45731U, 0x3b9b68b1bba634cdU, 0x3dd66732be05f15dU, 0xba82825a3dbf30a3U,
  0x3d0d7aa6bc091b21U, 0x3d1a1721bd5d4786U, 0x3dd57e9e3dc16511U, 0x3d8ab6853d089297U,
  0x3d38f9a53df6456fU, 0xbd7d340d3dac3417U, 0x3dd8585b3dbe5b0bU, 0xbd45ce43bc65b9a9U,
  0x3c1c0e4e3d6e67b2U, 0x3d8ee3e03d991ddbU, 0x3d80d7dabdd29d69U, 0xbd6de35a3d139c9dU,
  0x3c4c8fdcbd380946U, 0x3cdbce243d3d5f20U, 0x3cb290f2bd3b6471U, 0x3dd6f119bd2b583dU,
  0xbc10f98a3cb4d97bU, 0x3dd6bf983b922a07U, 0x3d252f0d3d6deb65U, 0x3dfb984f3d447422U,
  0x3d64f4163db13655U, 0x3d5c791e3d9a61ddU, 0xbd902a2a3c523989U, 0x3b1999143d9898f3U,
  0x3d965c313d201e7aU, 0xbd1730213d61f7d3U, 0xbd36db95bdac6a3bU, 0xbda55c8d3e3607fcU,
  0x3b26a63b3d840cb7U, 0x3e1489d93d085fdcU, 0x3d05fd873c8e45ddU, 0xbd3c004aba8a0b5aU,
  0x3da2fd62b9b4f1b7U, 0x3c6ce1673da27280U, 0x3c355c9abd2fb8b5U, 0xbe1ffa2dbd5875fbU,
  0xbd6113afbe0b413eU, 0x3d2aae55bdbae4f2U, 0x3cc7a308bd110061U, 0x3dd1867e3cdbc3a1U,
  0x3db2211d3ddbc7a4U, 0x3d4e60723d049e74U, 0xbca01cfdbcf2c567U, 0x3d50ce9ebca0b2feU,
  0x3d82920c3d6d4398U, 0x3d5ec89b3d1efb07U, 0x3bfb845cbbb74092U, 0xbc053fdcbdc27aabU,
  0x3d0d30763d2b00f2U, 0xbd4516f9bda9620fU, 0xbdb9fbbcbc5d0eb8U, 0xbd14d1b7bd7480a9U,
  0xbd6e0bcebc793271U, 0x3dfd86da3db37401U, 0x3da39f8c3e270463U, 0x3d84075abb2703d2U,
  0x3d8cf766bbdbf563U, 0xbbc216b33db36886U, 0xbc93dd863cfa619aU, 0x3d19c5063d923722U,
  0xbcd071443d223ed5U, 0x3d068af13d30008aU, 0x3c97df8bbcf2d4b3U, 0xbc9e2d43be0c253aU,
  0xbca98825bdae260dU, 0x3cf6ed6c3ca35bc9U, 0x3df4d5363c5876e3U, 0x3e7689c93e1ee180U,
  0x3d2eb5043e812f80U, 0x3d83a461be0b76a1U, 0xbb96d4f03d958163U, 0xbc0f769ebe216c3cU,
  0xbb7b971ebcffc4c2U, 0xbc48998e3d5459eaU, 0x3d378e003d828449U, 0x3dacf45b3d5a4085U,
  0xbce5f51b3cca662cU, 0xbdb9e383be0dfd3eU, 0xbdf0f496be0d5c66U, 0x3d89ae373c9a585fU,
  0xbd1a4b443da56e5cU, 0x3df6a52b3c4860aaU, 0xbca0fa733ddd365fU, 0x3d553292bdf3a268U,
  0x3d7ff7923cf2bc94U, 0x3cd6bde1bcb1060bU, 0xbc28985f3df7c53fU, 0x3dd2b46a3d7330bdU,
  0x3d897192bc53d3edU, 0x3ca366c03dcbfbcfU, 0x3d2be69a39be1271U, 0xbd1a866dbdc5dd91U,
  0xbe0f2a15bcc1765fU, 0x3d8ddd943cf99580U, 0x3dc15ff13dc1b919U, 0x3d38dfda3e231304U,
  0x3cca65ec3dadb41fU, 0x3cf62c6c3d9b8c26U, 0xbd79fe803c610bf8U, 0x3d644880bcffa62dU,
  0x3cfb3a8d3ac93c1bU, 0xbd0739e8bc88e99fU, 0x3cb1a2313ccf5ce4U, 0x3e57b73c3db3f711U,
  0xbca1e8153c83a8ffU, 0xbe03501bbcea710eU, 0xbce6c7ea3c7bee3bU, 0x3d862e87bdbd498fU,
  0x3dc7d1cc3d923ff2U, 0x3e23792b3da4ec4eU, 0x3d20797f3d0c775aU, 0x3d077744bd27573bU,
  0xbd98f1683d8e139dU, 0xbc6aaaba3d5e459eU, 0x3d490d2c3dfd5e21U, 0xbcdb1cfdbd002ef1U,
  0xbce46567bd7616e7U, 0xbd2ecf653a92c1c1U, 0x3d0f4c243b0e393bU, 0xbd90177f3dadff0dU,
  0xbc8682eabd61a5a0U, 0xbdf88d01bd95b90eU, 0x3d2540433d111f5cU, 0xbcdd9d593bd2eff3U,
  0x3cb52a803daa7419U, 0xbd0ad2cdbd863185U, 0x3d329046bd81998eU, 0xbd839ea5bc2468c0U,
  0xbdd35028bd00c159U, 0xbc6e5fa5bd482454U, 0xbd96c9d8be114c9eU, 0xbe14c8613d928b20U,
  0xbae2c221bd8879d1U, 0xbde9c2ecbde83882U, 0x3d4487693cea79faU, 0x3c2d05d8bd86c5a6U,
  0x3db670ccbd383c04U, 0xbe041fa4bc2c3cebU, 0x3d8eada7bd122f39U, 0xbd9732173d25357aU,
  0x3c121fd83d350b16U, 0x3c84e054bcc26d96U, 0x3d9a05edbd506be2U, 0x3d8ce8473d0fa312U,
  0x3ce56f583d98b635U, 0xbd406faabda588baU, 0xbcf990b8bda0f806U, 0xbd2a358bbd5c9f94U,
  0x3d81e2893b6cc220U, 0xbd25dba2bd2ffa0bU, 0x3da359773d1e937cU, 0x3d68211e3bbb9200U,
  0x3d66dfc6bca84e40U, 0xbda608b8bb565aa0U, 0x3c0a5f28bd5a3836U, 0xbd87269dbba17f90U,
  0xbd9bf61ebd99afefU, 0xbbe5eb47bc9db366U, 0xbcd2b1e63dac6d0bU, 0xbb5a54163c9e1106U,
  0xbd20f859bd28dfd2U, 0xbb69d61d3d24b3ecU, 0xbd82acbfbdd0f60fU, 0xbc64a24dbd04aad0U,
  0xbd807b973d164044U, 0x3da51c093d9763c1U, 0xbd5c05b6bd9c6bd2U, 0x3d003958bda2d5d8U,
  0x3ba215003d266476U, 0x3bbaf4ed3cb6c188U, 0xbd82ec983d9b242bU, 0xbddb0d0cbdcb8852U,
  0xbd0b7ca4bd00cc4fU, 0xbdc49a53bd9366ddU, 0x3e0393e5bdb2a974U, 0xbd33bbb3bde4473aU,
  0x3d7ee901bd25fbffU, 0x3bfbf27ebd953f12U, 0xbd7b095ebd8f7547U, 0x3b5be7b7bd0aef36U,
  0xbd1e50c43d16d653U, 0x3d721a423d461536U, 0x3d73cd363d9a6dcbU, 0x3cc78e98bd7fdf1eU,
  0xbd3e9e4b3cac4beaU, 0xbe33a509bd57311bU, 0xbd0305cc3a1fc561U, 0xbb3556d0bc927b5eU,
  0x3d05b2aa3d14fcf9U, 0x3db10abe3db0643fU, 0xbde60c363d740e59U, 0xbcabfdbabe2ada29U,
  0x3c7237493d6e97dcU, 0x3c9dba81bd41d9ccU, 0x3ba5e9bc3ccfe8e4U, 0x3d3696de3e2dd657U,
  0x3d298a5b3b8b3ba0U, 0xbcd19280bc50f2c8U, 0xbdf638a4bdd3fff6U, 0xbba4e814bdac76e9U,
  0x3dd7065dbb553d4aU, 0xbd3ad48fbbfe009fU, 0xbd1eb0e9bc74b545U, 0x3c962ec0bd613f61U,
  0xbd12b5c73d5b744bU, 0x3cd2a09b3c3110d1U, 0xbd96074ebd933e11U, 0x3bef33c1bdb410e4U,
  0x3e1213273dfb5614U, 0xbdcf5ca63d97cbb8U, 0x3da20fb3bd14fd70U, 0xbddb750abdaa24c0U,
  0x3d96e674bd2cdccaU, 0x3d515c103bdaf00bU, 0x3c9539d9bc4e0957U, 0xbe0fb701bdc339f3U,
  0xbcf94a23be0bac75U, 0xbd1c17c1bd8011f0U, 0x3c4f7b653d6ca042U, 0xbd03ccfc3bc1ef07U,
  0xbd830356bd5af134U, 0xbc981a0f3bdb00a8U, 0x3dc08d463d2965e6U, 0x3c27e7793d862188U,
  0xbd60e1fdbd27ac41U, 0x3d872bc03e3d2c9aU, 0x3de1baaa3d0950c7U, 0xbcfbdbdd3d9ffef9U,
  0xbdc986e23d20ecf5U, 0xbda48816bc0a7d64U, 0x3d64ad21bd582cbcU, 0xbd563926bc1fd5d1U,
  0xbc6299bdbdb098c3U, 0xbd62862dbd045bccU, 0x3d2cecb23ca26ae3U, 0xbc1be6f33dbd7412U,
  0x3e6c3a18bccc0061U, 0xbcdf4b4c3d299be4U, 0x3d9cf2d53d6c4abfU, 0x3ddcccf73df497faU,
  0xbc3b1651bd054e77U, 0x3c80d3ae3e026da9U, 0x3d3bb1a53db1f8e8U, 0xbd2c0976bd7bb87bU,
  0x3d8238b6bd092eabU, 0xbd61ae62bda0699bU, 0xbda4313a3d027296U, 0x3d58caa13d914f03U,
  0x3d7a2b48bd011bd6U, 0xbd9eafccbcba33dbU, 0x3d7ca543ba984192U, 0x3d958194bc1844b2U,
  0x3e19abb0bc86842fU, 0xbde0f18ebd22a153U, 0xbd96345dbe3bf3b5U, 0x3d28a160bb23fe77U,
  0xbbefa9403d5ee340U, 0x3bf489903dae8733U, 0xbc573c163d8623f7U, 0xbce0f51d3dea266bU,
  0x3db1f482bd71c9eeU, 0xbd821d463d713237U, 0xbd0d71aa3c72ae1dU, 0x3cae944dbb0c86cfU,
  0x3db6d6873d2704cfU, 0x3cb0bf423aa681ecU, 0x3e0f97e33dda7df0U, 0xbd59f9fdbdd4405eU,
  0x3d8576ac3d44d216U, 0xbc65e70d3d001f71U, 0xbcc1c0313dd55547U, 0x3d76e6253e1a6c7bU,
  0x3e40852d3e3ed8faU, 0x3d95c1c33d9b650fU, 0xbbc55cf23d667fd3U, 0x3db9b2f33cd4b905U,
  0xbda0020fbd8f1912U, 0x3d0ae3833b81fd1bU, 0x3db38ab03e3652cdU, 0xbb807e46bd86e57eU,
  0x3daf3aa03c266266U, 0x3d02c8593ca39818U, 0x3d9a8eafbc5fdf31U, 0x3c35b5483cba2d7fU,
  0x3da267603dbe2ff4U, 0x3e71119e3d54c41dU, 0x3e8afb553e2facfeU, 0xbca7a2143e0a2425U,
  0x3d52a6aebd018da7U, 0x3d7d86143d8aeaa4U, 0x3de7299f3d0fd482U, 0xbd0132683ce22b1eU,
  0x3dd41e063df1010bU, 0xbc40175c3e02b7d5U, 0x3de160a83c285af5U, 0xbd1927773da361a9U,
  0xbccb56b9bc477f31U, 0x3cd3d6c63dbb41f1U, 0x3db1fb973d9d0fefU, 0x3e12db3e3e5085caU,
  0x3dff912c3e4030a9U, 0xbd9c05b13cd27cbcU, 0x3cb0ab15be011415U, 0x3cde6da23d4f9126U,
  0x3d21853f3d9e2908U, 0xbc4f50a83cfcb68cU, 0x3c56f712bd198111U, 0xbd8e94913e446361U,
  0x38decee83d5c7457U, 0x3d1ff4dc3db372c5U, 0xbba46b703d1f28d4U, 0x3df224723d8667f1U,
  0x3df666403d7083caU, 0x3df538b33dace75aU, 0xbd90920f3e24fd99U, 0xbc986945bda7f909U,
  0x3bcd51eebc97249cU, 0xbd800d12bc8bf03cU, 0x3d59cc843da8d238U, 0x3d22f9c43d9c13ccU,
  0x3bcccf113d81954aU, 0xbdf729b53c2f3d0eU, 0xbc9c4acdbcaa9baeU, 0xbc8c7c163dab3b79U,
  0x3c3fcd61bd9d5bbdU, 0x3cf32aff3d16276aU, 0x3d8daebc3cd40034U, 0x3e096d153d4c40ffU,
  0xbdeb3012bce72355U, 0xbdbab2bfbdfc3547U, 0xbd398ce9bd98fdf0U, 0xbd51957fbd0010f0U,
  0x3cba1def3b676811U, 0x3bad17943d0663ebU, 0xbcb3a3553dc2d7a9U, 0xbd3532f03ca505fdU,
  0x3d18521dbc978af9U, 0x3cc2b1653e06ff61U, 0x3d98bdf83c536c1aU, 0x3d37b7763cc45208U,
  0x3c4a43283d20319dU, 0xbdb567333db756bfU, 0xbdcaf411bded0b3cU, 0xbdd72933bd854e8fU,
  0xbddd8968bda0b0aeU, 0xbbc6e0ccbd96dfe8U, 0x3d819ce9bcd667f1U, 0x3e2b0daa3e0dec01U,
  0xbc2308e53e63f02bU, 0xbdcf7027bd966a0cU, 0x3daa0f463ca7bd39U, 0x3d3c0b1dbdaefec5U,
  0x3da1bbf93cd82ffcU, 0x3d68773d3c897289U, 0x3cc2e729bd979480U, 0xbe4abf70bd89e4b7U,
  0xbe5abb40bde120f3U, 0xbe14b10abe09a932U, 0xbda0681ebd853e7dU, 0x3c78230b3c2c4397U,
  0x3dbf43043d5f8ee4U, 0x3e3d24d83dde9408U, 0x3d0bc06c3e82c797U, 0x3c080d40bd35ed16U,
  0xbd238f3fbd0cdaa2U, 0xbd4a76f83d7f243fU, 0xbd8b446cbdd84405U, 0xbda8efa7bc84118dU,
  0xbdafccf2bda51286U, 0xbe0dfc04bd3cb9d4U, 0xbe46600dbe160609U, 0xbde61347be2fe048U,
  0xbdc904cebde3a257U, 0x3b6f083cbd1d2173U, 0x3d08f87c3dc91f49U, 0x3c80744c3e05b41eU,
  0xbd3ea2db3da9f9d9U, 0xbc77b6543dfa966bU, 0x3d3f7f07bba01f60U, 0x3d49265dbd42f144U,
  0xbdafe836bdbbde60U, 0xbe228720bd8863e5U, 0xbe45012bbe02ee98U, 0xbd17e977be28643cU,
  0xbe8e5e64be42c343U, 0xbd95b5a6be74eb5aU, 0xbd17da0cbdfbd882U, 0xbd8cc61e3daddd3aU,
  0x3cb1567bbd49446eU, 0x3dcccd303cb3eb8fU, 0xbc6d4650bc883730U, 0xbc9b28c13dcf054cU,
  0x3d5f6d3b3e1cf3c7U, 0x3aae92e53d3fddf1U, 0xbd32141ebe09ee9fU, 0xbd7c6b99bc81b23bU,
  0xbdc8ca89bd7d5bf0U, 0xbe31d5d8bc95b3a6U, 0xbe8cb96abe8c6407U, 0x3beaec00be13cc86U,
  0x3d4c717439ba0b21U, 0xbd261a58bce08c52U, 0x3e13f9c33de85293U, 0xbb02488a3d3d3622U,
  0xbd442c413da97903U, 0xbd622b98be3f66efU, 0x3d916dc03d3d553eU, 0xbdbbb20a3e22cbdfU,
  0xbd86d0cabd21ca3aU, 0xbc886df8bd4f5a73U, 0xbd548f7bbded3d4bU, 0x3c9b800abd2b3c6aU,
  0xbcb6d88dbd3f56fdU, 0x3d1587413d3898c2U, 0x3cefc1e73de7671bU, 0x3cbb85d33d0064a6U,
  0x3d9e8a293cb5c9b1U, 0xbc55efe6baddd172U, 0xbd281f203d953598U, 0x3ca27bf4bc2ef83bU,
  0xbd6d15a5bb9ca0f0U, 0xbdb8b5023d7c50c4U, 0xbc748f30bd8a9540U, 0x3cf1b885bcab59e2U,
  0x3cdffa3eba2ad166U, 0x3d5495e9bd6da2f8U, 0x3dd984973deef535U, 0x3d7771503d9ae928U,
  0x3de771643cbc33e5U, 0x3db5bd08bbca1e2fU, 0x3d85de34bd1cdd44U, 0x3d1c76003c7aca82U,
  0xbda73107bd5a18f9U, 0x3c243c33bdba2943U, 0xbdac71973d5f8112U, 0xbd34856ebe39a4b8U,
  0xbdb8dca03ca7bd20U, 0xbc66b4323d1b7915U, 0x3da739e03b392069U, 0x3db9b5f23c7c6160U,
  0xbca159843e0508f4U, 0x3d90f3bf3c8165feU, 0x3dbd78423c91abefU, 0x3d11c25d3c82b9fdU,
  0x3d72dcdd3dffa8b0U, 0x3cd9f3fc3dd6ff8fU, 0x3c6d301d3d26c66fU, 0xbd93071f3d8c3f95U,
  0x3d3aa75f3cbb29e0U, 0xbd974f51bdb30b42U, 0xbd89fd2ebdfdff5eU, 0x3d9bbee03c9ab8d5U,
  0x3d99fe603c257c56U, 0xbc4a34063dd8fff7U, 0x3be312c63cd11104U, 0x3dbafc873d638212U,
  0x3da76e833cff3e4aU, 0xbc936ed93d8d462bU, 0x3d1cea1c3d810284U, 0x3d815148ba5a21b4U,
  0xbd12e4f63cf68573U, 0xbd94b26ebd45ef67U, 0xbda5ff86bce90020U, 0x3ca15075bda6041fU,
  0xbcf5cea3bd6a6416U, 0x3d584f983d89ea41U, 0x3dd7b41c3d7d0d59U, 0x3d4c5bb63e31a4dbU,
  0x3d6ee7c83dc28b4bU, 0x3cae4790bbaaa49aU, 0xbbadac683dd41649U, 0x3c858b9ebd06ee73U,
  0xbd17a5b6bd20be3dU, 0xbd8a18fa3cf2e23aU, 0xbdc0fbb73d4fccc0U, 0x3c2bce20bd723ee0U,
  0x3d6dad6abd923544U, 0x3d4c027cbc238f33U, 0x3ce596f53d975dedU, 0xbd1fba44bcc95f52U,
  0x3e21f64b3d58d9a3U, 0x3c96bec43dea109cU, 0xbb2ff4de3d0fca66U, 0x3ccd9e9f3bc6d15eU,
  0x3db254c93d5b6a91U, 0xbce2f7fbbd61026fU, 0x3d144716bb9df7bdU, 0x3d406bd1bd828b7dU,
  0xbdbe9ff23ddc9073U, 0x3d8f5bad3d3bf072U, 0x3b2f1b003d0e4384U, 0x3da327be3c5f8f44U,
  0xbe039aa73dccd301U, 0xbc1a2d71bbf9c478U, 0x3d91398d3e1ae66cU, 0x3d11eadabdcd5c2eU,
  0x3d97f06c3def8c4cU, 0x3d2d2048bd2d447aU, 0x3c138d5b3ca7b8b4U, 0x3e0b11573e0260f5U,
  0x3d878a8ebbe8d0f4U, 0x3dec17693dd81ffaU, 0x3c3aa78b3e2ea3e0U, 0x3d455ff6bcc7082aU,
  0xbd4c29543cf1a9b0U, 0xbb9e29503d77f006U, 0xbda1fea9bd538575U, 0x3d709dcabd28585bU,
  0xbddf06f73d1ba2b6U, 0x3d8a04f43c983101U, 0x3dd409bb3d3a510cU, 0x3dac6a183d33c9e7U,
  0x3de1bf193e42834aU, 0x3ea2379c3dd8650fU, 0x3dba4fcf3dedf637U, 0x3e02c2543e29ab94U,
  0xbc6179fd3bd8a217U, 0xbca0f0d63c69c3a8U, 0x3cee3a003d5898aaU, 0xbccbb228bbf2d340U,
  0x3db54a343d4f6cf2U, 0x3e1193393d764e51U, 0x3da9d51d3df5935aU, 0x3dd7793a3e0adb5eU,
  0x3e12ed323d162d51U, 0x3d9b4ef03dbd88b2U, 0x3e7fab393c0159ceU, 0x3c73db553e1337d1U,
  0x3e10e4f3bd4792d3U, 0x3dc2eea83df0e901U, 0x3c4113683cc8f290U, 0x3ca4e1b0bd674e15U,
  0xbd16e61cbd33e39eU, 0x3c4edda83d2f3170U, 0xbd838ab9bc997b72U, 0x3d9907cbbd422de5U,
  0x3d85f02fbb917d10U, 0xbc983e44bc8cb7dcU, 0x3c911bf4bd6539c5U, 0x3da497f4bd84ba9aU,
  0xbda32d2cbd1d5573U, 0x3cfd1d1c3ba5a8e0U, 0xbd115f61bc6262c0U, 0x3c49e7003d4dce1eU,
  0x3d57b2d6bd68331eU, 0xbd81e776bd7b4546U, 0xbc7c9aa8bd9eaedeU, 0xbd880789bc2cd078U,
  0xbcb6c54e3c608ae3U, 0x3daa66e1bd0810d2U, 0x3def8ded3e00df66U, 0x3db35a2c3d5df1d3U,
  0x3d9d5483bcb03cd7U, 0x3df13a413dea1f2fU, 0xbdc990a4bb1d0a81U, 0xbdc157b93d58047fU,
  0xbd7467c0bcc541b0U, 0xbca6d1ae3d8c8522U, 0x3d47c4da3c86c3e8U, 0x3d486d263d1040faU,
  0x3cb2ddd4bd84ac3dU, 0x3cd6fb28bd15c34fU, 0x3d95784ebc83ae88U, 0x3d9f93833dc63ebaU,
  0x3da08b2e3d21bce8U, 0x3c2d4876bd2941e9U, 0x3dd9d11e3d94331aU, 0x3dcf88883d90d9ecU,
  0xbdb1bf33bd411b7aU, 0xbdc0c63fbdf6e141U, 0xbe246025be45786aU, 0xbda9a500be0a7e69U,
  0x3cb722af3c5706a5U, 0x3d7b4556bb7c4b80U, 0xbd97949a3ca8be1cU, 0x3d843f423dcf0609U,
  0x3d4f78173aaf3e87U, 0xbe0ad4b8bdc4c719U, 0xbccd9af7be4104c5U, 0xbd2c98263c3e1bdbU,
  0x3ca05722bd725fc4U, 0xbe5d930dbd91c528U, 0xbde1ce2cbe14b563U, 0xbe02288ebdc5232cU,
  0xbd0e5acfbe08cac8U, 0xbdd95c433d81c78aU, 0x3d999259bde8d201U, 0xbd8c652bbc874031U,
  0x3d516b2a3d82c979U, 0xbd01dfed3e07e6a3U, 0x3b231282bbfb5ab3U, 0xbe1cb42dbe162e20U,
  0xbddc1087bdb1236bU, 0xbd02c89abe02f3d0U, 0xbba50a2ebd7ff9d7U, 0xbd35941ebd905d77U,
  0xbdf0d392be359133U, 0xbe1d2f9dbd529290U, 0xbd02cd6fbe245891U, 0x3b5f1e19be087faaU,
  0x3b87f0febe1bd63dU, 0xbdbb192ebd17313eU, 0x3c877558bd4dcea3U, 0x3d429ce63cd1248dU,
  0x3d97494ebd94540cU, 0x3c848f37bcdfcb2fU, 0x3d89c05a3d06665bU, 0x3d9f6e9d3da0ced8U,
  0x3db5b1723d573327U, 0x3a0f6dd7bcf5d1f5U, 0xbdb671c4bddc112aU, 0xbdb68040be4ea7c3U,
  0xbdc7d2edbdeb1ca7U, 0xbd6617b8bd12fc67U, 0xbe0b1405be1cd5ebU, 0xbac22232be1ca5bfU,
  0xbd19dd0a3d746b4aU, 0xbdb2aaedbdab83f0U, 0x3d1a32e2bdd367a1U, 0x3d93fefb3d24c264U,
  0x3de9272c3ca9b408U, 0x3d0096713c2d8475U, 0xbd07bb5a3e16963dU, 0xbba769e0bce80624U,
  0xbdc0eb19bdabe1baU, 0xbd249be83c74bd8dU, 0x3d67370f3daee843U, 0xbc252bae3becfadaU,
  0x3d8e7a81bd2f55fbU, 0xbc837bf3bd445988U, 0xb91a83bc3d9790eaU, 0xbd8f5fc53d814925U,
  0xbd3d3321be0e73aaU, 0x3d4509453d30ef79U, 0x3d2bdee7bdb99f7eU, 0x3dbaf3d23d028e1cU,
  0x3b2351bf3cbd474fU, 0xbcb73fc1bdb099f2U, 0x3c1a67ce3c1584b5U, 0x3c7395923deb0a8dU,
  0x3e83880b3e150cedU, 0x3dad4f773e5c8ca1U, 0xbbb1cc3e3d2dc0d7U, 0xbd3889453d278ffdU,
  0x3e1e2e4fbe146561U, 0xbdc5157e3c81e7d5U, 0x3d30b79abddd8a17U, 0x3da3c8e63ccdab59U,
  0x3d7a193e3dd2d3bcU, 0x3d430fad3ca8113fU, 0x3da0d2783d9b6c00U, 0xbcdf216bbd84f2fdU,
  0x3d9ed9d4bcdd689fU, 0x3e0d7c9f3dc61c77U, 0x3e0868193e50c1a1U, 0x3e223dbc3d86ab67U,
  0x3da3d3b13e2fc9a3U, 0x3d9de5333d6a9981U, 0x3db178c23c0aa842U, 0x3db107583c451797U,
  0xbd834b02be187a9cU, 0xbc795a853ce599a6U, 0x3c2a5d65bd06d934U, 0xbbba5fe7bd0a3e23U,
  0x3e265aa23dce73e8U, 0x3e079ce33dd4681dU, 0xbbc086323d4a69d9U, 0x3df91b3c3e125e15U,
  0x3e3975dc3e0b9e72U, 0xbc3016a33dd54940U, 0x3dc329fe3d6eaa38U, 0x3d864d673e5df624U,
  0x3de837a23d746630U, 0xbdd8b1003d14dbc9U, 0xbd5b32dbbe1312fbU, 0x3c0dcc1cbab084c6U,
  0x3b759493bd2990acU, 0xbbe34fa2bcafd4f9U, 0x3e0494083da40626U, 0x3e149edf3e983131U,
  0xbd3a4fdbbd59d65dU, 0x3dbf30543d987c05U, 0x3df77c79bc861852U, 0xbd4ba73b3c8982daU,
  0x3e4346a13e0e61a0U, 0x3dc73abc3e742cfeU, 0xbdb70f923c64d0baU, 0xbe28ae003d8450eaU,
  0xbd60017abd7d3e5aU, 0x3db39f66bd435577U, 0x3c7a3d7c3c0d430aU, 0xbdd46431bde4935cU,
  0x3e0ec4cf3ccb537eU, 0x3d92cb253e00535dU, 0xbe1f03983d1e131eU, 0xbe2f9c4ebe70bb7bU,
  0xbd9c11b1bd79a666U, 0x3c6e38abbdc62179U, 0xbb3c4efe3d640d25U, 0x3cd5a0173e1caf06U,
  0xbcb60cad3ce2a548U, 0xbe0342a23c80a12dU, 0xbe278b82be51dfc5U, 0x3df04b74be0ed862U,
  0xbca9deaabcd19dd6U, 0xbe008d0ebd6b5634U, 0xbd3978fcbcd96622U, 0x3d613adc3ca93c6fU,
  0xbe0b4154bbec8fc0U, 0xbe99db08bdb442ecU, 0xbe15d6debe9cd3c5U, 0xbe52f0eebe8d510dU,
  0x3df8624abe2fa7a0U, 0x3e24fe3d3e518061U, 0x3d81529d3d6548d6U, 0xbdd239423cdb6527U,
  0xbdf2911cbe1bf8daU, 0xbdb6a952bd210acdU, 0xbdddfc4cbdca657dU, 0xbe1c61adbdc91bebU,
  0xbd9b488bbe3a1439U, 0x3c9904fdbc06fce0U, 0x3cee9f7d3dcfa748U, 0xbe261649be0073c1U,
  0xbe52cc48be9c5df2U, 0xbd2220dabe3d6439U, 0x3d8971db3d711f1bU, 0x3e0f343b3e37fbd5U,
  0xbd805cab3d845309U, 0xbe0a198ebd7fc808U, 0xbd9c269abdb5b261U, 0xbde371b6be1497a1U,
  0xbe3241d2bd3bd415U, 0xbce0937dbdb4165bU, 0xbc2ab38dbdc87d22U, 0x3dce9f7bbc595fb9U,
  0xbd2528e63e090b51U, 0x3bfc0aafbe068b20U, 0xbe0be558bd4155c5U, 0x3da6887d3da11711U,
  0xbd3ae5c03bdee19bU, 0x3c81c6ee3e539e1eU, 0x3c3772703c570190U, 0xbcd58168bd5766a6U,
  0xbe5ed11bbd04c4e7U, 0xbe995ba7be9d3d80U, 0x3c3e47febe356ba8U, 0xbc9d6363bcbbd324U,
  0x3dc47d54bc0942fbU, 0x3d9f70383d01ee99U, 0xbcd045753d36e463U, 0xbe02e033bd18c077U,
  0xbcad788e3cf9ce5cU, 0xbc3384283d4fb722U, 0xbcc84aa9bc6ee4e5U, 0x3e18a7923dd53080U,
  0x3cb18af13d977613U, 0xbdcc71dfbe0decf7U, 0xbe68c895bde16708U, 0xbe20ad61be3f95a9U,
  0xbc6ca88bbd926ec8U, 0x3d881b143e07d324U, 0x3d516ebe3dd33a35U, 0x3df814433df714f9U,
  0xbd6c5fd1bc9bbb17U, 0xbd6b7b24be163d53U, 0x3cc4b55a39f51d8cU, 0xbd161fb13c3f869dU,
  0x3dd341debd0d5b9fU, 0x3e0e4c9f3dfe6a6eU, 0x3d822941bccdf1aeU, 0x3cc44d79bcabc53cU,
  0xbd3c0fb6bd591bbaU, 0xbbe0b3cd3d06a784U, 0x3dd31ef0bdd06b55U, 0x3e631d4f3e05dbf3U,
  0x3d192faa3e06cb1cU, 0x3d5fad813de0e4b7U, 0xbe0a393ebda0c8a1U, 0xbdbf0bebbce46b67U,
  0x3d4a50a03d8f091bU, 0x3c5bd73e3d3ede24U, 0x3eaa78873d8db253U, 0x3d4d73be3e2617cfU,
  0x3cd577e23cefb4b0U, 0xbd235c69bd06c1baU, 0xbcccf234bc8e8608U, 0xbc82dd00bd88dfe8U,
  0x3e303e293dc6151dU, 0x3df853ed3df7abb8U, 0x3d2b71d83e1ba25aU, 0xbd3517583d35b70eU,
  0x3cc5c1c0be094944U, 0xbc72e9f4bd153c74U, 0xbb80c5f43d3cd35bU, 0x3d8a39f83d18804bU,
  0x3e3fa3873df73d8eU, 0x3daadcf93e33e9c6U, 0xbd660171bb3b8f8dU, 0xbcb89d7abe0a1475U,
  0xbd2b01dfbcdfa34eU, 0x3bda8ebb3c7e82f2U, 0x3de55d233d657140U, 0x3dd490713e3124a8U,
  0x3c1f0c023dc61ab8U, 0x3c9f8c8dbdabd7deU, 0xbcb9e767bd81bd77U, 0xbde1b567bc460be5U,
  0xbc6756ab3d95f502U, 0x3d61a743bcac8a91U, 0x3e1e39de3e06f704U, 0x3e1221d83dc8e131U,
  0xbd2ddd913c5758b0U, 0xbd8652bd3c328dfdU, 0xbcd75b903c269a8eU, 0x3bb35f303bf8e1c2U,
  0x3e0010df3e0016cbU, 0x3dd93b203e08b68bU, 0xbd42e60d3de58680U, 0xbdaaade3bd23d2a4U,
  0xbd5ee31fbd9f6f7aU, 0xbe04a4a2bdba2214U, 0xbda728e3bc4d875dU, 0xbce5f3f2bd9ac694U,
  0x3e3e15fa3da7fce5U, 0x3cf0bc663dce9d44U, 0xbc42acb8bcac1316U, 0xbacc965d3d7a6c57U,
  0xbcf0aeb63dde62fbU, 0x3ccc44d23cd07e91U, 0x3c245cf13dbbe78dU, 0x3b085e23bc7e9b85U,
  0xbc546b033d4ba9f6U, 0x3c7b99f9bd26f231U, 0x3d6a66f8bd4003beU, 0xbdb0e77cbc964dc3U,
  0xbdb010bfbd8fc3fcU, 0x3cd25c9fbd6d35cfU, 0x3df349bb3e4ef652U, 0x3d06dc6e3df8794eU,
  0xbd56a560bc234d28U, 0x39cd3f0ebdcad1dbU, 0x3dc8c9533e0b76c5U, 0x3da8fc3e3ccc4805U,
  0x3dc8a0703d893c19U, 0xbd4c7423bc2daa1fU, 0x3cdc779e3d92b70dU, 0x3ce0a8523d2e1fb1U,
  0xbcce43e8bd423db1U, 0x3d4833a5bd281503U, 0xbd1a360f3d25fc9dU, 0xbd85bfbbbd6bffbeU,
  0x3e56215e3e21d03bU, 0x3d091b323da6a365U, 0x3d83ad6bbd8f9971U, 0xbe432f06be1b6d2aU,
  0x3d889bb73d28a479U, 0x3bd00ce23db2e554U, 0x3b6c09e9bde11a3bU, 0x3ca11b713df3e116U,
  0xbcf3cab8bba274e8U, 0xbd5a49843bba8a53U, 0xbd7a8ba2bde7897dU, 0x3d7c30abbe25187cU,
  0xbd2d7ad7bd845ba0U, 0xbd0bcb063c12343cU, 0x3e24ccfd3d765104U, 0xbd9a51f73cf30646U,
  0xbd816321bd81046aU, 0xbe04b61a3ca44143U, 0xbd3587cbbdfc09d6U, 0xbd550220bd995663U,
  0x3c988d54bd650b9bU, 0x3deffaa93da8d146U, 0xbd47cc9c3d9282b0U, 0xbc838ec83cd0de2aU,
  0xbd9bd995bddfd246U, 0xbd394825bcecb0ddU, 0xbdc8eb8abe2621faU, 0xbddfec3bbe3969eeU,
  0xbb1e32b23dccd350U, 0x3d3980bebc3377a2U, 0x3d209d263d4c39daU, 0x3d9262cbbd837ee2U,
  0xbd8f9a1bb9e7421dU, 0xbe222462be02f3fcU, 0xbdb8f839bdc58772U, 0x3dbcb6a03c2d61f7U,
  0xbdbdd2cc3d21ceccU, 0xbe029aeabe247633U, 0xbdad84dbbe30d680U, 0xbe9821e6bdc3c8ebU,
  0xbd42a271be1953daU, 0x3d4c6d60bd9bdc7dU, 0x3d8421a13dfcb4a8U, 0xb9cdb2003d934ad0U,
  0x3d82deb33c632ca0U, 0x3b831254bcb33b32U, 0xbd3981c8be269a19U, 0xbde4273ebdf85d13U,
  0x3d2b05c8bdc9f7ffU, 0xbd90364dbde2bb78U, 0x3ce6b601bdb79e8fU, 0xbc29738bbe448d8fU,
  0xbe752dbfbe1aeb01U, 0xbdce2abdbe2309acU, 0xbd5e2736be3c3376U, 0xbba19fc0bc76e66bU,
  0x3db7e0e9bd3dea61U, 0x3d17e85ebd9cb5c0U, 0x3d06aa3e3d5af15aU, 0xbc34d040bcfe5550U,
  0x3d8e66533dc6596eU, 0xbdda1f3fbdca6657U, 0xbd451991bd88639dU, 0xbcd313f83df39b4bU,
  0x3db3113f3d8d5fadU, 0x3d67634ebcee0856U, 0x3d99ab153acff226U, 0x3d1419a9bdca0c54U,
  0xbd038ce2bda3e22eU, 0x3cbf56ccbdd7e0bcU, 0xbcee3ec0bd91d0dfU, 0xbd8dfd9a3b5f20c0U,
  0xbc8a110c38761800U, 0xbcf3b7dcbc3e0fb8U, 0x3d8009d93d5bbea2U, 0x3d8e52533d9bba35U,
  0x3d99222fbc538df0U, 0xbab711c03ad48000U, 0xbd3a2a08bce14eadU, 0x3b848410bd925e66U,
  0xbcbf61043d8e394fU, 0x3d4f095ebd89afdbU, 0xbd5473003d505232U, 0xbcc8184abcfe5c72U,
  0xbd6e477e3c3b8f98U, 0x3cc90b2cbc87c21cU, 0x3da0076bbd195d56U, 0x3cc3b6dcbd600e54U,
  0xbcaf25633d06b1d8U, 0xbd29b165bce9fefbU, 0xbe3e299abe1dbdc0U, 0xbcc3b067bdd6f323U,
  0xbddb0b4dbddbb0c5U, 0xbda6ad273d9c10deU, 0xbcbfcd07bcac7a90U, 0xbdd17db8be2d6cd1U,
  0xbd7bade3bd8f9d5dU, 0xbd98bf533c9de916U, 0xbc8e1d303c9518ccU, 0xbd3ddc9e3b064280U,
  0xbd9ed5bb3d9b42e9U, 0xbd3a65e1bd5c37b6U, 0xbd136645bd260c67U, 0xbe1e4b0bbdbda545U,
  0xbdbdc8a2bd7234b4U, 0xbdc4df90be29084fU, 0xbd8cc88fbcfd3a6dU, 0xbe277f7fbddace69U,
  0xbc8d78a6bd9c3961U, 0xbd2316f2bde0a915U, 0xbdb7c3c23cf57971U, 0x3be825edbc5d7253U,
  0xbda8863b3cd2672dU, 0x3d8771d5bcfc5cb8U, 0x3cc57080bd388d0aU, 0x3d2ae3c63d0a3dc8U,
  0x3d9e928c3c37841cU, 0xbcfecdadbb7e4576U, 0xbe1290123d83753aU, 0x3dd478f5bd24b4e8U,
  0xbd87dc6b3d4682c1U, 0xbc0f66693ca0ca42U, 0xbdfc51933b84dc2bU, 0xbe12c704bd96edf9U,
  0xbd96fc73bd4c5d75U, 0xbe28bbfbbd04b271U, 0xbcd6c2a7bd6370cfU, 0x3d889899bcbe4732U,
  0x3caea62fbd8d6de2U, 0x3d4025dd3d8c64e7U, 0xbce27eff3d964eecU, 0xbda0ff34bdbd5e17U,
  0xbd6aeb93bdcd4c4fU, 0x3c40d268bca6279bU, 0x3da6b1f03c89ac78U, 0x3d74838fbdd520d1U,
  0xbde78409bdcc4ddeU, 0xbdfa37afb92b9c3aU, 0xbe0a8546bdab3edfU, 0xbd24d5c5bdff89d4U,
  0x3c41c8efbd28de92U, 0x3d6d1d77bd19ba92U, 0x3d5b57723d150cc0U, 0x3db2ef1a3ccbe7b4U,
  0x3ca620cfbdf03cf3U, 0x3d8deb383c5b780bU, 0xbd10e5f5bc9a1bdaU, 0x3cb469c13c823282U,
  0x3d9c38b63d8c8a8cU, 0x3be753d43d874012U, 0xbc7600f2bd641cfaU, 0x3a8840a23d3b8e15U,
  0xbe3e088abda90983U, 0xbe76e588be5a9ed9U, 0x3cad70d7bd409774U, 0x3cb24e713d0b17efU,
  0xbcf4cab33cee4b0cU, 0x3bf444c63e0cfe6dU, 0x3c4bfdbd3c8414a6U, 0x3dbed695bc4b4356U,
  0x3cee6f2b3df73d11U, 0x3d3210bf3d9d6329U, 0x3e4649633d907a6aU, 0x3d5b8cc83e1abbb2U,
  0x3d8d37713de1475dU, 0xbd74a7b03c37c78aU, 0xbdb62b0e3cd759b2U, 0xbdd3a1d7be019127U,
  0xbdcede47be2c4f00U, 0xbcbd35d3bd748c39U, 0x3d0da9c8bceddf9eU, 0x3dc7f3b33da300b3U,
  0xbc10b17cbd3c1cdaU, 0x3d113c8e3ddb9f18U, 0x3b1c2b1e3d85aa2fU, 0x3d959b513e084d5aU,
  0x3d6a18b33d966f69U, 0x3d87a8ba3de73bceU, 0x3deb565a3dbacf71U, 0xba8ed8f0bbdf23deU,
  0xbe2cd8d43bad81abU, 0xbd882be8be5d80ffU, 0xbdb2d460be29b53aU, 0xbb89666cbdc86d75U,
  0xbc839909bdda1645U, 0x3d9b2d89bd6322d9U, 0xbb799b18bc2ce270U, 0x3d7525433cb42d93U,
  0x3d74a1653e082449U, 0x3dce05803c72bbeaU, 0x3dc13d5c3dfff4f0U, 0x3e32ccc83ddd70c8U,
  0x3e07d5123d97b832U, 0x3dc844f13d9e46e1U, 0xbce238fbbda4bd50U, 0xbde9efb4bdd3c3abU,
  0xbe73ee99bd082601U, 0xbcbb8ca4bdfb8b75U, 0x3d758c003d290ea3U, 0xbd792f663d915a64U,
  0x3d9cc2bebd594a3fU, 0x3d92f3443d8de6d9U, 0x3ddb54333dcb8b3eU, 0xbc81bf8c3c6f1eb2U,
  0x3d24f63b3d337019U, 0x3e13133f3de16fe5U, 0x3dd44bac3e171271U, 0x3cb6af033da621b8U,
  0x3c7fd12f3cccb4bfU, 0xbdca6a5fbc019b7fU, 0xbd12d5e3be2560aaU, 0x3dedcd85bd778ca4U,
  0x3c87f2bf3c632902U, 0x3e0072cb3ddbc436U, 0x3d3ffc2dbc9ab00fU, 0x3ddbdcfe3d8ea3ffU,
  0x3cd6ddce3d9232c1U, 0x3d060964bd4b463bU, 0x3dc407f1bd9d8d62U, 0x3de8eba73db0d932U,
  0x3de822f73e0dcd55U, 0xbc3539353c185f44U, 0xbc7ebd07bd33f746U, 0xbccdab0fbcaf3a89U,
  0x3d83e368bdd46212U, 0xbc1022eabd0d061eU, 0x3cf3f1bebcac2defU, 0x3e0abffe3e0ea3d0U,
  0x3d21f9fd3a0dab63U, 0x3db7f84e3dc2f557U, 0xbd4a3ecf3df0ff20U, 0xbd8c9a7fbd68239aU,
  0x3d491e37bde33c62U, 0x3cd50d9d3da268a7U, 0x3e0a4296bb1d0506U, 0x3ce3c947bbb817e6U,
  0xbcab35cb3d19a666U, 0xbce0e1ba3c3e5ab1U, 0xbd72ca48bde259e2U, 0x3d978b9e3ce62eeaU,
  0xbd32693a3d93441eU, 0x3df521c63d23b56cU, 0x3e01e8fa3d14c015U, 0x3d9f69dd3ce0ae48U,
  0xbddf1417bc3b9258U, 0xbd5eb7383d26cbd9U, 0x3d84fa42bd7750abU, 0x3d0816343daf3a03U,
  0x3d91bf7d3da0122fU, 0x39f920253cd46205U, 0xbda4f2c93da950f9U, 0xbd3f0d823be99e3bU,
  0xbdf0b20dbe70ebf1U, 0xbd82bab3bd70da22U, 0x3d9f7d53bd412268U, 0x3d9c2e723d4a1c3aU,
  0x3d3ee8983d830365U, 0x3d1782de3dba8908U, 0xbd365672bd60bccbU, 0x3c86fc6bbdcdf487U,
  0x3d457b39bd49f0ceU, 0x3d4c27123d917191U, 0x3d9c053bbd393d26U, 0xbd6e9b48bcd58d5dU,
  0x3d1c9187bba214d9U, 0xbe42926abcfd451fU, 0xbe3c22b2be2cd165U, 0xbc9da9f8be042222U,
  0xbd14f41bbd7f095dU, 0x3c0bedcc3daae131U, 0xbd342d863cad5684U, 0x3c9480303cdabe42U,
  0xbdcbab48bd561a57U, 0xbd5a8f93bd7752baU, 0xbb1782fdbd1b80bdU, 0x3d1fe89c3b6c6fa0U,
  0x3dd5d20abd4e8196U, 0x3d9adc4f3d51524bU, 0xbb377fa93d230350U, 0xbd761e3cbda6361eU,
  0xbd099cdbbdfb3fd9U, 0xbd78e7c5bd9ca59fU, 0x3dc97e1fbdfd7839U, 0x3d2fd29d3c8e44deU,
  0xbd1dac8dbd19280cU, 0xbd508918bda7ae3cU, 0xbdfad81abbf5ab1dU, 0x3cf5ea14bc414a4aU,
  0xbc020778bdc128aeU, 0x3d1b62e4bc2838c7U, 0x3d5942bf3c98e537U, 0x3dd94b133df82429U,
  0x3cafb5c93e22bb94U, 0x3d7c11633dacfe2aU, 0xbe5cc9b1bd19d756U, 0xbb504fdebd3fdc57U,
  0x3c080de33d3d0671U, 0x3cec6b8bbcd24ee3U, 0xbd716aff3d959d92U, 0xbdae48f93cb37678U,
  0xbbc2ba613b44497cU, 0xbd840ea6bd4bbf68U, 0xbd4e9d1dbcf39fd9U, 0xba95597abdfacd13U,
  0x3d07b023bc1ace76U, 0x3d0e64aa3d96f021U, 0x3d0499e63e062434U, 0xbd4d34bc3d3327dbU,
  0xbeaa51cfbcd801a3U, 0xbda680acbdcc565bU, 0x3dfee1f9bd01d7dcU, 0x3da3d644bd3a6d53U,
  0xbce1e15b3da826acU, 0x3ce70522be0e8feaU, 0x3ce52037bcccefdcU, 0x3d7d65d73d250a29U,
  0x3d412b543d77cc82U, 0x3cbf2acbbd29c8acU, 0x3db9310dbd98fdfdU, 0x3cee6f8cbc80a8e6U,
  0x3d20c91a3c7e5e5fU, 0x3b8b411cbc148240U, 0xbe4b9d0d3d74e3f2U, 0x3da8565c3dff7af7U,
  0x3d2025f13d5c6c9cU, 0x3cf9fd4abd17bfd2U, 0xbe29cdacbc92c39fU, 0xbc85455fbe10a05bU,
  0xbe000581bd73147fU, 0x3d975144bd093da3U, 0xbd6a6055bde2c3f2U, 0xbd9ff3a4bc5d0307U,
  0x3d3c73f7bd33161dU, 0x3dd0c5923c6d4904U, 0x3d99dae8bb8c379aU, 0x3cc7a2d9bcacea67U,
  0xbdb80d7cbd84df14U, 0xbe30434a3d7157d3U, 0x3d4a9cccbc20f194U, 0x3b3ca36e3d946e5dU,
  0xbe14cc66ba4d0e0eU, 0xbe2cdebabdff774eU, 0xbdd41ca9bdc6c27fU, 0xbd18c451bcdcec7dU,
  0xbdcef39ebd920eafU, 0xbe0a4666be03b9ceU, 0x3d946b59bd005b9eU, 0x3d703e263d91a997U,
  0xbd5111ca3dcff7c2U, 0xbcbac9b2be00df15U, 0xbda9b6f63d98e9a9U, 0xbd6e801b3cbfafeaU,
  0x3d9e904a3acf9880U, 0x3b7d36a1be00acaaU, 0xbd55d135bd38d40dU, 0xbd802c50be052c63U,
  0xbd022cfcbd841bb8U, 0xbd077153bdfe7f85U, 0xbd87e9d4bd8ebe62U, 0xbd5e1e2fbe0652b1U,
  0xbd0059713c9fa280U, 0x3d974f1d3d4159feU, 0xbe0d18683ad3645eU, 0x3bcdafe2bd0ad0b7U,
  0x3c6352f53e2035c1U, 0x3d819d2ebc9ff6ffU, 0x3ca7f948bc1f4d29U, 0xbd350e88bdbc4d50U,
  0xbd30e9913b8f0bd8U, 0xbcfb2691bd955535U, 0xbe20c8bebd5efa53U, 0xbcb5f253bd4051a4U,
  0xbda0e8e1bdd4d89aU, 0x3cd941dcbdbdb862U, 0x3d5810763c2f7c42U, 0x3be6a540bd3f8d52U,
  0xbdc51c6c3d729b63U, 0xbe1e9839be178802U, 0x3dd7f2cd3da1d538U, 0xbc0d224cbd91c9dbU,
  0x3d3baa9ebd1f8e89U, 0xbdab0d12be05e3c7U, 0xbd95cf1fbbf1669fU, 0x3b477feebd8ce4beU,
  0xbd442d80bc0d8d68U, 0xbd352c41bd2113d3U, 0xbd845a8bba883cf5U, 0x3d713be93d5bcd73U,
  0x3dd7e7b83bb2c503U, 0xbd51bc073d1a1bd4U, 0xbdba15b43d3c84ccU, 0xbc82689ebc14d4feU,
  0x3db8fdbf3de3fe2eU, 0xbd71d8493d91ab53U, 0xbc1bfa783d2eeb80U, 0x3d91841a3d77e83dU,
  0xbcf721903d570ad8U, 0xbd1304f33d4cf2edU, 0xba9bb09a3bfbf4e3U, 0x3d8736573d935926U,
  0xbd14507abd61c4e2U, 0x3dc5d99c3de4ed15U, 0xbbcb1bbcbd1213e5U, 0xbe0b2f95bd9174feU,
  0xbe1b7ce9bc85ac80U, 0xbd4602f93d09bd5bU, 0x3da2d59d3d5a10f1U, 0xbd48ba453d890a08U,
  0x3d23738ebc9a280cU, 0x3e2fde8c3e09eca8U, 0x3e8d474a3e4d5d2bU, 0x3dbc95053da0791eU,
  0xbb0dddbe3d919088U, 0x3d3f5c633d03cf8bU, 0xbc9bef093d94b229U, 0x3d0bc992bd63f1adU,
  0x3dd4c8af3d60dcb2U, 0xbddc74d4bdcc45d9U, 0x3c4bfa4cbcaa37b1U, 0x3daf0137bca23402U,
  0x3b9b227abdd068d4U, 0xbc6d55203d5785daU, 0xbd2db4953d1a0072U, 0xbca567083de62bbaU,
  0x3e0299043e30ad9cU, 0x3e0880ab3d5bcf9eU, 0x3d064b993e17c9d0U, 0x3d050e4f3d7e01a5U,
  0x3c16ede33b86d4f1U, 0x3d0e6e2f3d258b19U, 0xbd766fe7bcf16168U, 0x3dfe229b39e524e7U,
  0x3dc5e1323dee075cU, 0x3d09ec1c3c9e5da6U, 0xbd9a82cebd312fe6U, 0xbd9e1621bdcee450U,
  0x3d5332fabd65e1c0U, 0x3c53f7d93d8b8e47U, 0x3dc27da9bd460b04U, 0x3e534bbb3ca5dd9bU,
  0x3e47fa2c3ddd7c35U, 0x3d82090a3e533c2cU, 0x3e44cea73d02fc8fU, 0x3e669d5d3e6ba5a3U,
  0x3e7009d73e13bc0aU, 0x3e5a7e1f3de28b0bU, 0x3e0b1cb03e65e6b4U, 0x3d662acf3e80cea2U,
  0xbd1cf78a3e041267U, 0xbca4e63abd0554d3U, 0xbd52f5753d214e74U, 0x3d09a4a43d114a54U,
  0x3d8bc3053db50467U, 0x3e0fb75b3d640ee4U, 0x3d49bcdb3da40b79U, 0x3db31e913e518792U,
  0x3d087a453c174514U, 0x3df3cbca3e3da871U, 0x3db68e393dce70ffU, 0x3e6791dc3dd9bcb5U,
  0x3e5c94e63e1f3f9fU, 0x3dc60b463e5b031dU, 0x3ca1cd9cbd531ce0U, 0x3d4ccfdabd612d3dU,
  0x3d9b94973d9c1695U, 0xbca6b170bd9fb8d5U, 0xbd8305703da2d0f7U, 0x3d8cc3ebbce2d386U,
  0xbd0d4c08bd609a10U, 0x3cec23e43d5f5022U, 0x3cb07f6cbc8bb03fU, 0x3d58d5c33d9bae30U,
  0x3d7bf962bd13cc19U, 0x3c930850bcca4e52U, 0x3c7a7ea03c0bd3d8U, 0xbd8d58473d1ab140U,
  0x3c2065b8bd8d550bU, 0x3c271ea8bd943062U, 0xbcba59383c385a48U, 0x3da01d253d86da95U,
  0xbd9b0594bd90161cU, 0xbd84d7e63baac395U, 0xbc9e30bbbc4428d1U, 0xbcd4e770bdcb7761U,
  0xbdc04329bc3dc3e3U, 0xbd3f775fbc72141cU, 0x3c42eedc3d106ba7U, 0xbe1767b7be56dc14U,
  0xbd37d6c7be580e8cU, 0xbd0aca1bbb4043e2U, 0xbd6f648e3b59c700U, 0xbd7676bebd1358a8U,
  0xbd8de7d5bd931325U, 0x3ceb92debcf077fcU, 0xbd583e0ebd251ee9U, 0xbd54b4163c871dcdU,
  0xbda97c0bbe1989b4U, 0xbdd30ddfbd8810b1U, 0x3d6753333d301102U, 0x3d143075bd5727e1U,
  0xbd17aef63b0f875cU, 0xbdd924dfbd4a005cU, 0xbd3a9fedbe2ebb05U, 0xbd572376be2f9ec0U,
  0xbc33fb7d3d18c374U, 0xbd932032bd8c033aU, 0x3ce1f094bc3afae8U, 0xbd30d610bd11ac4fU,
  0xbc80d38cbd40593eU, 0xbd8ee682be1d4babU, 0xbd83af9fbdd98cc7U, 0xbca627593d9adf04U,
  0x3cd88d8f3da83b81U, 0xbcd9b9c0babcfb24U, 0xbd4cd1263daf9abcU, 0xbe378a92bd998a6cU,
  0xbd00add0bd60b714U, 0xbe46088cbe3e69f0U, 0x3d619239bdda87f7U, 0xbd42f1e1bd85ba65U,
  0xbd20fb803d82e6bfU, 0xbe0e04fabd27fb30U, 0xbe084500be1d2b71U, 0x3df9d4b63d957792U,
  0x3c27b88ebd074c85U, 0xbc0976aa3cbe388aU, 0xbc21dd523cdd4dcaU, 0x3d31db9ebcc447b0U,
  0xbbfb4fd4bd1546f9U, 0xbd548b39bcec2a9cU, 0xbded1867bdb9775fU, 0xbdd6b407be0d84edU,
  0x3d72fe15bc690135U, 0xbe1aab4c3c95fb1fU, 0x3d5d170ebd5a4ea3U, 0x3d957f08bcbad76bU,
  0xba9cbdd3bdf3017dU, 0x3ccdb9e73dc1474dU, 0x3ca48f36bd83ab3eU, 0x3b2ed54bbd6abdc2U,
  0x3ca3a9c4bd97c4e8U, 0x3dfed2563da4457aU, 0x3d9ec1d1bd1c88d5U, 0x3dbe03c83e11f172U,
  0x3d48d71e3b09cd46U, 0xbe2a388dbd2cae3fU, 0xbd8d3991be33d618U, 0xbe081d8dbd929098U,
  0xbd104bcd3cf48be0U, 0xbd23e15b3db529c0U, 0xbde9bb8ebd5d6a6fU, 0xbe293f25bdd52577U,
  0xbe05cfe1be43bba0U, 0x3a61c041be0ad0dbU, 0x3bcd2fba3c014d64U, 0xbacaaa983c9cf4b3U,
  0x3d410c563db34680U, 0x3d0c4c603c389770U, 0x3daa91de3d0ab0c3U, 0x3cb4eb36bab60db9U,
  0xbd9284e0bde6d7c2U, 0xbe0143133d0f4194U, 0xbd851b073c623320U, 0xbe0549debc6bc307U,
  0xbdf41e14bd831140U, 0xbe2f981dbe039ddcU, 0xbcaec68dbe0872b2U, 0xbce123e0bd8b3c86U,
  0xbd8e12d4bd68856dU, 0xbcd240323da5170cU, 0x3cf400f23d845521U, 0x3e0159c03c2ecfe6U,
  0x3da4f8aabd1fef11U, 0x3d8f5e163c310fbbU, 0x3e1cef4bbdad42e6U, 0x3d1f5605bd9cce69U,
  0x3d102e4dbd768215U, 0x3c5f5c78bd4346b3U, 0xbd6ba5ffbd15dc0cU, 0xbd73a415bddd966bU,
  0xbd8ef5f7bcc32b89U, 0xbd4c3829bcd0c7b0U, 0xbd7e3328bd3d1ae0U, 0x3ddf6cec3d9fa9a3U,
  0x3e1b7b2e3d84e0e2U, 0x3dac42af3d6121e6U, 0x3d8df8d43d195938U, 0x3ca95f04bd88aab4U,
  0x3db2e0a43cb3af8eU, 0xbda13c883d19c756U, 0xbd50866b3d0b4a4cU, 0x3dcc8f853da12ec0U,
  0xbd956a30bdf28a7fU, 0xbc605d0d3d5e6630U, 0xbdc2be46bd8790e8U, 0xbd3b7f53bd0f5d11U,
  0xbd18b580bc895fd3U, 0x3d842b873d801e9dU, 0x3e2fc47e3dfb9144U, 0x3de0dfe83e06a4f1U,
  0xbc457de93c6bdee3U, 0xbce53a71bcfddfabU, 0x3c12e7143d8b82dbU, 0xbc07e1a83d2a4a0eU,
  0x3bbad06ebb91fdcfU, 0xbaf60684bd0fc34aU, 0xbce9dd263cbd236aU, 0xbcd2b71f3d928338U,
  0xbca31ba1bd862840U, 0x3cb605dbbcfa35f7U, 0x3bf09cf4bd5ef0aaU, 0x3bbf1a2c3cf5d347U,
  0xbd36c801bcf69c48U, 0x3da039e23d1fa18cU, 0x3d48e6013da9470bU, 0x3d062e3fbd612ee9U,
  0x3db7f89ebd7ba38dU, 0x3da38a293d38136dU, 0xbdb9db08bdd3b523U, 0x3cef758dbadb3afaU,
  0x3e026a903d15d982U, 0xbb0521773d54b6ffU, 0x3db192e1bd4453daU, 0xbdbfb353bbc02c35U,
  0xbd15dbd1bd804f2fU, 0xbcaf95d9be0fa028U, 0xbdefda1fbe1bb688U, 0x3dfb5c29bd898d1dU,
  0x3d1dfdec3e0bf1d2U, 0x3d9779fe3d3f68b4U, 0x3cd6f01c3c5c8205U, 0xbd22bd15bb31ac12U,
  0xbd86d8483bbebca2U, 0xbc9a16cfbd3674fcU, 0x3dbd1c983da80d8cU, 0x3d24fcaa3d292007U,
  0x3c2967173a6ff0e0U, 0xbe3a541c3d237e33U, 0xbdc63032bd6b5e22U, 0xbe38c7f0be0b64b0U,
  0xbe00acc5be0bf7faU, 0x3e33d135bcb8415fU, 0x3dc09fae3d01ad16U, 0x3bf1ff383ceca92cU,
  0xbd9d50d2bd99d53fU, 0xbdb77bbc3d288367U, 0x3d0a93573d5cefa6U, 0xbc902fe9bd8b81deU,
  0x3c9976e33e0ca8daU, 0x3d94738cbcc2bc7aU, 0x3d729b0b3dbacb55U, 0xbdc527d33d122bc0U,
  0xbd867d8bbd9aef8eU, 0xbe3f10b0be0e05bcU, 0xbda911a0be3b58c2U, 0x3e1e155d3d0a6c89U,
  0x3daf04b93dfbe7f0U, 0x3d8f81793de07061U, 0xbdc22f3bbcf8bfc8U, 0xbcb43c1b3d808bcbU,
  0xbdbb79c2bccfbd39U, 0xbb979359be2d00d3U, 0x3ba67a9c3d4da81aU, 0x3da830663e1e3729U,
  0x3de7e8203daf9e2fU, 0x3d8e13393dbb1691U, 0xbc1c75633d7dc51cU, 0xbdb75930bd1c2ae1U,
  0xbdc458c6bd3ef368U, 0x3deb12173d9b5887U, 0x3d3ca6af3d8dc104U, 0xbd081c2ebbf85725U,
  0x3d54695bbd4b947cU, 0x3c155c583e2e7e54U, 0xbdf085adbdd5edb0U, 0x3cd80224be0b055cU,
  0x3de06eb63d812762U, 0x3e00255f3d8a321cU, 0x3dda4ef53d8084edU, 0x3cdbb3113e13f329U,
  0x3d82a4683d9bd480U, 0xbbb459b3bd9f9114U, 0x3b033edf3b9dc7f2U, 0x3dab91593c96435eU,
  0xbc7a0d8cbcd07fa0U, 0xbd843194bdfbc2deU, 0xbd967114bde00e47U, 0x3e2f85b23d08c3beU,
  0xbd51686cbdaf6752U, 0x3d571394bdbc9bdaU, 0xbd0f21773d4deb0cU, 0xbb11211b3dc7b021U,
  0x3e050b8fbd1e2b16U, 0x3e476c843d5917ceU, 0xb7bb15e83e278533U, 0xbd556aa53ca0c49eU,
  0x3c5a03eb3d8595d1U, 0x3d72e35c3b7a3d5fU, 0x3d455f303dd3e77cU, 0xbd90c694bdcb5126U,
  0xbddd5c29bd234f94U, 0x3e4de3d53dd73340U, 0xbdbfd6cfbd268fd7U, 0x3dde499fbcb37381U,
  0x3cd1a9f53c0cce09U, 0x3d3568ba3ca92e93U, 0x3d507e813c97bdadU, 0x3e156fa73cbe9c44U,
  0x3ccb23bc3d7716c9U, 0x3dc4b123bdb937e4U, 0x3d40c803bc8a4a3fU, 0xbc524e743cb15d9cU,
  0xbd9432e9bc99570aU, 0xbda7805ebc08e7b1U, 0x3cb49662bde80ce2U, 0x3e467c3f3e196956U,
  0xbd24fb54bb6ac5e6U, 0x3da84f23bded849eU, 0x3b4bc1893d6aa36dU, 0xbcdc74553da1514cU,
  0x3def650c3dda8729U, 0x3cb2eb063dd95f3eU, 0xbce52e92bd6d7cc2U, 0x3d3c11d8bc4b450cU,
  0x3d9041523d53550eU, 0xbd441dc23c3cbdd5U, 0xbb17a05cbb25fc01U, 0x3d1908283cb1fc4eU,
  0x3dd39b8b3d778cd6U, 0x3d538acb3d8cd3f4U, 0x3c081bb4bd522390U, 0x3d852f063da6ab40U,
  0x3da647b23d3b4c04U, 0x3be353c83cb78426U, 0xbc2394963d1a3080U, 0xbd12f09ebd544580U,
  0xbd9b1007bcb5ba47U, 0x3d499adc3d25a351U, 0x3e03cac03d031a10U, 0x3df67bfd3dd1961fU,
  0x3cafc7b2bb49d400U, 0x3dc904373ddfd77fU, 0x3dbdf3523cc0be6fU, 0x3cda314e3d161551U,
  0x3b407c653d88fcabU, 0x3e2653943dcb2225U, 0x3dd986f53e296a7dU, 0x3db21dbf3d2ca447U,
  0xbc7b02833db2446dU, 0x3c15b5a03ce62e01U, 0x3d0a417cbde4256eU, 0x3dc29b0abdc733ccU,
  0x3c31abcd3c4aa8dbU, 0x3dccd3f93cdbb021U, 0xbc3d1a203cecc3dcU, 0x3dbf84883cd706cdU,
  0x3daac0663d78a08eU, 0x3da9ed063d9f600dU, 0xbd2868fabd83561aU, 0x3e16b94d3d03b379U,
  0x3dcfa4a33d9ebd27U, 0x3da2103c3dc7839fU, 0xbd5dd4adbd198a28U, 0xbd2e24d2bdb16ccaU,
  0x3c2605f3be11fe79U, 0x3d935180bd4dff3aU, 0x3cdafa1b3d8c2d81U, 0x3c961e933b306dceU,
  0x3da77ca6bd7c6ea9U, 0x3d853b323d0c58abU, 0x3d9561453e30036aU, 0x3cf122c53ca94e87U,
  0xbcdbf067bc949d38U, 0x3dcb862e3d9ecbddU, 0x3dc5ba1d3d957674U, 0xbd472ecd3e0980b2U,
  0xbca640a03da9fd7eU, 0xbd8d3e793d2fe921U, 0xbd0ab7ecbd7fdb2eU, 0x3d06129d3d899f80U,
  0xbd9d9798bc2ea07fU, 0xbdae9f82bd3cdb6fU, 0x3caacbe73d767139U, 0x3d7cee4f3d2627caU,
  0x3c4a31163dcd5a72U, 0x3c147dbabd09c5adU, 0x3cda7000bd83ed6fU, 0x3dcbffe7bda8d274U,
  0xbd8ed63b3d031bfdU, 0xbd26cceabd1f12daU, 0xbd267b17bbe294aaU, 0x3b890907bc8d43b5U,
  0xb7af6d783d43cb2cU, 0x3c9c0a903d9c01e9U, 0xbbf0b8a43d4599f3U, 0x3d2a8c22bcab06e1U,
  0x3dc4ee3bbd33c350U, 0x3d304bef3ce3cf2aU, 0x3d6c2ea43e48654cU, 0xbda23adfbd972cbaU,
  0x3d64ce123d80788dU, 0xbe325021be0d3a53U, 0xbd0cd28ebe115b08U, 0xbe142b1dbe198510U,
  0xbc94a3e1bda5659fU, 0xbda99424bd5916a6U, 0xbd4b977dbc257816U, 0x3b9b0fefbdb8a95cU,
  0xbdaa6b75bc7a7a98U, 0x3d557cb7bd655d37U, 0x3db399ba3dc683ffU, 0x3e00c3883e098849U,
  0x3d9fa4c33e32451cU, 0xbbb09c103d804546U, 0x3d713e8abd94c115U, 0xbdca1e413e160dd7U,
  0xbd5becb6bd933f56U, 0xbd3d0427bdc0deabU, 0xbdf36443bd88cba6U, 0xbd816ad7be1e28f9U,
  0x3c53f894bdffd11fU, 0xbdbd5ba23b1c3c24U, 0xbe4a41a9be1b5875U, 0x3dfb5c7fbda9f2b3U,
  0x39803bed3ddbb5c3U, 0x3d1b50e03db4ba87U, 0x3d8d12fabdf525c5U, 0xbceb636a3d80e624U,
  0x3d92dd1bbbc94f80U, 0xbd6d7ccdbb7f4780U, 0x3e16f63c3e1d2ec7U, 0x3d88c6373e5692cfU,
  0xbd8f327dbd68e1e0U, 0x3c4d7adc39956ff4U, 0x3daebdde3d1475afU, 0xbc35cd4b3ddc46f7U,
  0xbe0e232fbd521fa7U, 0x3d61f04dbcedef23U, 0xbc2786eb3db721d3U, 0x3db6e9bebd1c9e72U,
  0xbcc789183d9f5784U, 0x3c09be00bd21f007U, 0xbd08c2523cf796c8U, 0x3d8556cdbd49cc1fU,
  0xbe2d5329bd3fd1dfU, 0x3dd046bcbc2c62d3U, 0x3bef6cc33d2bf018U, 0x3d12ed053dd94b5fU,
  0xbdb72d023d7cfbc4U, 0x3cda49e03d3597b7U, 0xbdc18d53bd72a5f4U, 0x3e0af3d83cfe636dU,
  0xbd8dcc00bc77bc4aU, 0xbd9fd7fabc89d471U, 0x3d64c07abbaab290U, 0x3d9aa61b3d9f5b55U,
  0x3d2936fa3d163898U, 0xbda01c0dbcc6875cU, 0xbd4fb35abc72fe50U, 0x3d6e75463ccb38dcU,
  0x3d92c807bccfbd74U, 0x3d608a363d49bcdeU, 0x3db7ceb6bc7438ddU, 0x3da469113de0bad1U,
  0x3c0f3f083d839b77U, 0x3d959ae33d7c2d7aU, 0xbd11e704bc18b9c8U, 0xbd9ca0c93d44ed82U,
  0x3c9077d8bd37e774U, 0x3d5ac0f23d7647f6U, 0x3d890491bcd0e42cU, 0x3d443e2abc399450U,
  0x3c5dfeccbd3e96efU, 0x3d2ade9d3d520e5dU, 0x3ddd08f23d686378U, 0x3e12eeb5b9207e39U,
  0x3e09e9763d30ffd2U, 0x3e405bad3d3492b5U, 0x3e6303373dfbe4eeU, 0x3dfd49343e06b51dU,
  0xbc16c8ef3dde4787U, 0x3d8a717ebcbea90cU, 0x3d6cf3aa3c8961b0U, 0x3bcbf280bb4d9140U,
  0x3d4c8cce3d315ab2U, 0x3dc2e5ea3b2afe27U, 0x3c04f7993dc845a5U, 0x3e1475a43d6a6c77U,
  0x3e16dd683dbcb6a6U, 0x3e35d4203e76faa1U, 0xbc4502e73e3b0e6eU, 0x3d966b973d8a23c6U,
  0x3c5185143dd2fe3eU, 0xbd4496e13dce4c0eU, 0x3c47661c3b9fd2a7U, 0x3da098093e0bbbfdU,
  0x3df630133e254571U, 0x3d282df4bb3c5580U, 0xbb957e50bd8fdf38U, 0xbce3e63dbd487802U,
  0xbda52cbb3d8cc64bU, 0x3cd23b81bd350b73U, 0x3df608913c939ca6U, 0x3d212d0b3e06a312U,
  0x3de866e53dd2c6f8U, 0x3c8708b43d9a1641U, 0x3d6cb3b63d1d459fU, 0xbafc1f50bcf861daU,
  0x3d42848abd19d2feU, 0x3d4c13183c54cb3fU, 0x3cf0b5523e56a98eU, 0x3cdc8c283da9fef8U,
  0xbd647dc43d93cff9U, 0xbc5ec904bc2c51aeU, 0xbd8185d6bd8a6e63U, 0x3cf61798bd7a8e75U,
  0xbcee4cfebd390c4eU, 0x3caa0e693bc131b4U, 0xbd9a6327bdd28f97U, 0x3bcdbbbf3d20d30aU,
  0xbcbd49213bf594f9U, 0xbc706e45bcbf2576U, 0xbd8f8ea7bdf8c0a9U, 0xbd631149bd103f5eU,
  0xbc9875ddbd90eb71U, 0x3d334af33aca507fU, 0xbc82b8343ce11658U, 0x3d2a681fbddd415cU,
  0x3ccada9abd6bc84dU, 0x3d99121d3d682089U, 0x3d91135a3e26771bU, 0x3d7ae5cc3d456ed1U,
  0xba9373a0bc725a37U, 0xbd9aa712bd973a29U, 0xbd365f9e3d2391a4U, 0xbdc014113d821530U,
  0xbca84ff9bd91927fU, 0xbbd055cabb8b699eU, 0xbd10981bbcb6db9aU, 0x3dc7f7ef3d808c49U,
  0x3da9565e3d47b872U, 0x3dd36f983d556c45U, 0x3e03865fbc59ad92U, 0x3ddfc82e3e0cbf90U,
  0x3d94686b3e28b510U, 0x3e2e32eb3e155b52U, 0xbcc9f4533c0141f9U, 0xbd8ea695bd15b124U,
  0xbd9390a8bd5be970U, 0xbce0c8a33c860ca2U, 0xbcebeb77bc9bb504U, 0xbd57dd41bc81ec8bU,
  0x3d5c7fadb94f901dU, 0x3d655cc83de040fcU, 0x3e05a4c8bd909413U, 0x3db9227c3e2941c1U,
  0x3c0df9b93de4df3fU, 0x3e08d9543d8a552aU, 0x3dedb6aa3de8a8d7U, 0x3e467ca03de96822U,
  0x3d8a07383dacada5U, 0xbd8d6554bcd6f351U, 0xbd9765863d5bf906U, 0xbd1494cbbcea7615U,
  0x3c67c9803d95739eU, 0xbdbdb5f5bd63b7a0U, 0xbcbe064fbdc448bfU, 0x3d9ea3eebb06cb85U,
  0x3e22a1e23dfd82f1U, 0xbd74abbc3d0ccb0fU, 0x3d4956053a8194c0U, 0x3cdb7da2bdb09fc2U,
  0x3ddda75e3d6b2534U, 0x3df2153d3dbf7fe1U, 0x3ce5203d3dd84b56U, 0x3d8249f43dd36436U,
  0x3d8843ee3c933ad8U, 0x3d3644f33d920ffaU, 0xbd685e2f3d96da17U, 0xbd31edbabdbb3442U,
  0x3c04fbd3bdb8a014U, 0x3ce3a248bd91b924U, 0x3db3c5f93c7ee7c6U, 0xbd629d48bd6b5142U,
  0xbd91591a3ce78f5dU, 0xbdbb11f0be053e2cU, 0x3d9500573d485dc7U, 0xbc4d87e33d661b02U,
  0xbbbffa2b3adb0172U, 0x3d355c643c981e01U, 0x3db27ab83d88f1a4U, 0x3cb43a733d467bbfU,
  0xbcc64f603d4a840cU, 0x3ca60157bdd13b7bU, 0x3d24702c3dddd862U, 0xbdd47f21bd24facdU,
  0x3da43dc53d4fed40U, 0xbe009b833bccd623U, 0xbdffcbf8bde0ee19U, 0xbd9f4099bda1d222U,
  0xbd10cbd3bbafeba6U, 0xbe0bd3d2bd8c8801U, 0xbd97c2dfbdac7a60U, 0xbc6acc5fbd6a3455U,
  0xbcff76b93cf6d54aU, 0xbdff6dca3c7f5e40U, 0x3c90f532bdaf282bU, 0xbd31289bbc2c80ffU,
  0x3d13bf45bd88aff6U, 0xbdce37ffbacb9036U, 0x3df296553dec0bfcU, 0xbd39010dbd33401aU,
  0xbe301692be2f8050U, 0xbe7f8084be76f587U, 0xbdb18052be65ecf6U, 0xbe492325be081b54U,
  0xbd9310fdbde71fcfU, 0xbd6d3bbfbe18c6feU, 0xbc2b47dbbbf017e6U, 0xbd732db4bd0818c0U,
  0xbc73ef04bd6b7ebcU, 0xbd9beb28be0d2475U, 0xbda27eedbe2299b6U, 0xbdb24cbebda5d250U,
  0xbd5cb5253d32ad5cU, 0xbc8473d03cf655f9U, 0xbe1cc9c6be25c1fcU, 0xbe583241be9b69a5U,
  0xbe610460be52a066U, 0xbc8c89e0bde3799fU, 0xbd70b73abcd8f502U, 0xbd9c6327be08b090U,
  0xbc506158bd04b210U, 0xbd74639cbdc73882U, 0xbdaddf05bdc882deU, 0xbd9681f3bc88d92eU,
  0xbd4308c7bc61c7f5U, 0x3da98b2dbdc6b1c6U, 0x3c11c4c83d913419U, 0xbdaeb20e3daa5710U,
  0xbe8ce99dbe81b5d1U, 0xbe03b801be03fde7U, 0xbbf70023be238ca1U, 0x3cc312443dac780eU,
  0x3d4699853e04c448U, 0xbe1e96caba95ad80U, 0xbcd2f12c3ad59885U, 0x3b813998bdd37790U,
  0xbd943908bde7cae0U, 0x3d2d4dd6bb9c39baU, 0xbd8febcc39a6b5bfU, 0x3da1bd653da30ddbU,
  0xbda06254bcefefc5U, 0x3d7516cc3da2cbaeU, 0xbd32d923bd97d402U, 0x39292c74bbe00c89U,
  0x3e0bad253a7e820cU, 0x3e300cdb3e4d13f4U, 0x3d4a0f343d5ef67bU, 0xbd095ed1bda71016U,
  0xbda913fdbe0f237cU, 0xbcc5e2b43cac0760U, 0x3d89b1cebc5c7e80U, 0xbbb4a0f43d31db48U,
  0xbbc45db13e0c4366U, 0x3d964e183e26386bU, 0xbc1495983dfb579bU, 0x3c586d93bd418d7eU,
  0x3d447e75be25cf58U, 0x3e361aaf3d843f21U, 0x3e4a03b23d8de353U, 0x3d14bad23e2177cbU,
  0xbd990cb83d8ef50aU, 0xbd269c03bcb1857cU, 0xbd18524c3c3a470dU, 0x3bddddaebbfec3cfU,
  0xbce9b6073d7e02ccU, 0x3c927f86bd604052U, 0x3d44dd663e5f67aeU, 0x3da532b1bca8ff1cU,
  0xbd867792bccecbc4U, 0xbd8e5ca1bdbc7509U, 0xbc177515bd448679U, 0x3de8c6803db5bb08U,
  0x3e282ef03dc6f446U, 0x3c9d0a243cf85244U, 0xbd89ecabbce062aaU, 0xbc579d6fbdc52695U,
  0x3dcef6f23d1ffdccU, 0x3cc28e6d3cf6e3f8U, 0x3deb13febb1816c4U, 0xbdaaba6ebc88ebd8U,
  0x3df6fb7d3e2b0718U, 0x3dd803f53dcbb48cU, 0xbcb5c5003d718ed2U, 0x3d08ae883d7b001bU,
  0xbd210d55bcc92cb1U, 0x3d190dc6bd57be8dU, 0x3d9ced123d923d5aU, 0xbcce85133cf9a170U,
  0xbdc14580bdf6fa11U, 0xbcaf21d2bc8cfdc4U, 0xbbcd62fabd63d0b8U, 0x3d1a28963c8d2227U,
  0x3d32adc03cd3ed71U, 0x3d3676a83da7bd9cU, 0x3e1d457f3ca8f46eU, 0x3e00b45e3df534cfU,
  0xbb5081263e00024cU, 0xbb6e2d533ba4d456U, 0x3be70a68bdb1bee6U, 0xbd6217f8bdeef953U,
  0x3c361f703da6a076U, 0xbd45428ebd722579U, 0xbdfb5134bd909695U, 0xbc9b3a8bbcc53c3eU,
  0x3d96fa843c8ad7caU, 0xbbd3a039ba9ae932U, 0xbd4abb4bbd111e27U, 0xbb89c84ebd079e38U,
  0x3e449dca3dc1dde4U, 0x3dace49d3d9b4cf1U, 0x3d2be54d3bb40122U, 0xbd8f4157b9db734eU,
  0xbdc4d6b8bddeea2eU, 0xbdc0c9a1bd6c0d8dU, 0x3d10c0e23b4a4098U, 0x3ce3820ebd8cdb54U,
  0x3cf43ea03c231977U, 0xbd071ba03db8f1adU, 0x3da00ca1bcbe4729U, 0xbd3c5ba5bd9c0a5aU,
  0xbd5d71a83c1eb1b2U, 0xbd331f4fbcf37d51U, 0xbc02dd50bcf2438bU, 0x3d880a7c3e02a004U,
  0xbc2dee593d45af96U, 0xbc5537803da0d511U, 0xbe0365cdbd35f9c8U, 0xbd91f009be0aaadfU,
  0x3d44bf93bd1d161fU, 0x3de26055bce45f60U, 0x3dcb87f43e30f547U, 0x3cbd5bca3e142698U,
  0xbc1e4137bd5975e1U, 0xbd9d7204bda7485fU, 0xbd590599bdc7273eU, 0xbcd14683bcd7406bU,
  0x3d0bb34fbe0e586eU, 0xbd73aa6b3d075492U, 0xbd11f519bdbdcc11U, 0x3d61b51c3d61b536U,
  0xbe130f99bdcf31acU, 0xbd882c1dbe3ec823U, 0x3bcfb030bd8fe6eeU, 0x3db58e103dbea9c9U,
  0x3e2fc7bd3e20eaf7U, 0x3d219c973d46fe87U, 0xbd2f56aa3cc13fa4U, 0xbd9eaafbbbb45e97U,
  0x3d8db3443bbe8af7U, 0x3cd48e2d3daf1445U, 0x3e1097f7bd2da7e1U, 0xbada64053de109f8U,
  0xbce4f02dbcf0d9d9U, 0x3db458293dad8074U, 0xbcd1495ebdda7f6bU, 0xbd6e71ddbdf67ea2U,
  0x3d12b3d83ce814f7U, 0x3c405dae3c758604U, 0x3d9463fa3d793069U, 0x3db9ed693d74b648U,
  0xbd2667973dc2a91cU, 0x3d04f54c3b666e23U, 0xbd7eb8b8bdc9f2b4U, 0xbd941e373c65dc92U,
  0xbae29c7a3cb786a5U, 0x3d236f363ce9991cU, 0xbcfc8476bb541200U, 0xbc99d351bb83e514U,
  0x3d902be63dc25611U, 0x3d81272d3d503b9aU, 0x3d30c617bdc5c82cU, 0xbc7e13a73d5e4968U,
  0x3cde0099bca92d21U, 0x3d2537e73a0a1844U, 0xbde198eb3c6dbf27U, 0xbcda68f2bd9fa265U,
  0x3cfabbc5bdb6c727U, 0xbd3cd6a03d33f118U, 0xbc59871a3d8d4ee5U, 0xbb5ecb603c8260eaU,
  0xbb281fa03d8ae31bU, 0x3c6fccaf3dfd5a78U, 0xbcdb75833e09495bU, 0x3d35b6793bcbc549U,
  0xbd6eb6a03d1763a8U, 0x3cd40052bd209933U, 0x3d18e9ebbd93cbbeU, 0x3c37edff3c46d3d2U,
  0xbd4ea5a33d293a02U, 0xbca2bd62bd0f25a7U, 0xbdbb0c0e3c92d6a7U, 0xbd34fd2bbcac4b37U,
  0xbc795d203d8daa2fU, 0xbd3fdc7d3dcf4f44U, 0x3d5b61bebcb9fed4U, 0x3de22af8be02e184U,
  0xbe5d925abd8b77b1U, 0x3cc4fb16bb92f4c4U, 0x3dd34d113ddc46b8U, 0xbd729e5ebcf0c70fU,
  0xbda16db93d3b6ed2U, 0x3d3ba6e13d233e09U, 0x3dcb1fb03df2145bU, 0xbd4a8b453d87f1e9U,
  0xbd975dbebd9f6250U, 0xbcccbe84bc1184c3U, 0x3da150aa3df2d127U, 0xbbb6d8803d78ee6bU,
  0xbd9cd0a6bd88de68U, 0x3d42efa33d9e79a7U, 0xbe02a1a6be216bcfU, 0xbd8c31bcbe4e3a64U,
  0x3d7526d43d0c1e6dU, 0xbca283af3d0af4bcU, 0x3c797cb6bd15a1b7U, 0x3e0911853d68b855U,
  0xbe17bb4c3d2c5ceeU, 0x3e0a977c3da54c55U, 0xbe33bc97be0c6474U, 0x3d4c38d03cb0af36U,
  0xbbb5859a3cfcc75dU, 0x3ac41340bc4c8548U, 0xbd616de83d63cb92U, 0x3d7d8562bd9c738eU,
  0x3d3b9676bc51482fU, 0xbd67d9eabd1542b3U, 0x3dc055663af692f5U, 0x3cb8dc163c56f311U,
  0x3d987d213d8c5ea1U, 0x3d535c4dbda8735dU, 0x3d515b843e0c2329U, 0xbdec3174bdd06b6bU,
  0x3d5fe6a9bd6c6048U, 0x3c3532e43d4630b7U, 0x3cb7672c3d718442U, 0x3ba6a4803d084058U,
  0xbc4e35d83d985dadU, 0x3ce377f8bda3a10cU, 0xbd3e33dabbfbcb00U, 0x3d616cb63d8fae2bU,
  0x3d4f7c2a3b0f0460U, 0x3d5daa2a3d8b218dU, 0xbb73c262bdb5bf3bU, 0xbd2d2699bd3a6939U,
  0xbab0b0803da34165U, 0xbd311281bd8b4bb7U, 0xbc0eee403d827f91U, 0x3d722c82bd91965fU,
  0xbc09b8903d32e994U, 0xbd9460bc3d2f400eU, 0x3c95c3bcbd5c3903U, 0x3d2c0518bd11fdd4U,
  0x3d9e4bfd3cd84beaU, 0xbd6c26ecbd3eeb59U, 0xbddd7897bdb18c0dU, 0xbcf47476bdf1af7fU,
  0xbbd724b23cae2568U, 0x3c84b016bc7a8267U, 0x3daf166a3d85d61bU, 0xbd4a3160bdb2bc69U,
  0xbce4db91bc16bf4cU, 0xbc7c35143dd131e8U, 0x3c14f4803c42d748U, 0xbd84e0f3bb3314c0U,
  0xbd68cc51bc828e7cU, 0xbb0404803d589ce7U, 0xbd1a35793e061814U, 0x3d04f7edbd980aa3U,
  0xbd115a89bd8aaf84U, 0xbd6d0b62be5b0a15U, 0xbdad2fa7be19a47bU, 0xbe49750cbde6d6afU,
  0xbde88586bd3e6cf1U, 0xbdc980a5bc4579ceU, 0xbd9f5ce9bd4a28a0U, 0xbc66f8dcbdd49a6cU,
  0x3b6651ad3d960fbfU, 0x3cfc68ec3d434106U, 0x3c99bd98bcbe634eU, 0x3b82900dbc790d61U,
  0x3c03428c3d050594U, 0xbe50dfccbe34093eU, 0x3c7af0dcbdda6a54U, 0xbd6dcad8bd95a263U,
  0x3c06c44ebde00f7eU, 0xbbf83ce1bdbffe1cU, 0x3caaa70dbdabd7a9U, 0xbd0db2f8bd73e493U,
  0xbdfcf7f4bdf6c343U, 0xbdc20b5abdab3192U, 0x3df5ea33bb49d014U, 0xbc3951403d890155U,
  0xbdb5491ebc5c8ea0U, 0xbdaff94cbd8e8264U, 0xbe32c7c9bdaa8feeU, 0xbc8b5855be039eceU,
  0x3cf6181dbe1766afU, 0x3d0b9212bdf2c812U, 0x3ccef4fbbca23bf0U, 0xbdaba1f2bde1337fU,
  0xbdd1a68ebe2176f1U, 0xbe1bfd24bc754fc2U, 0xbdfefb8dbe10d5e6U, 0xbd60d1af3d5905dbU,
  0xbb349fdf3da8b08bU, 0xbd7918113db10e0fU, 0xbd9c973c3d93dce5U, 0xbdaf816dbe251256U,
  0xbdd7baecbe0085d4U, 0xbd24b320bcc1d168U, 0xbdd41806bdbf7f19U, 0x3d8799973d4e7823U,
  0x3d1dbfaf3d0e674eU, 0xbcb553233dbf02c2U, 0xbd6ef2d7bcb88342U, 0xbe07acea3a9db235U,
  0x3cf24fbabd2bfd61U, 0xbdfa0b53bc285c06U, 0x3c8e9cba3c3d05e6U, 0xbd8bf398bc4ceac9U,
  0xbde134d6bd11683dU, 0xbcd97d9a3dcb5e08U, 0xbe1a25bcbdd6fd43U, 0xbdb73041be2e37c9U,
  0xbd705d0d3b9b6fc2U, 0x3c8104283ca7ce3fU, 0x3e01abc13d509dbeU, 0x3b548c033da9c321U,
  0xbb71e12e3d603cacU, 0x3d35e97fbd4d3161U, 0x3c7dda653d5a96c3U, 0x3c602e433d1041dfU,
  0x3cc7fefe3c82b415U, 0xbde1939e3cc88adcU, 0xbe1f314f3ca75d30U, 0xbe1a5d5a3d070327U,
  0xbe04bd29be43b73aU, 0xbe01fd59be223abeU, 0x3d85313cbdc31f9cU, 0x3d928a2e3dc99420U,
  0x3e0ac9e2bc979aebU, 0x3df65ac63bd5256fU, 0x3b3738e73dbb4722U, 0xbd8417ef3c821bbdU,
  0x3db42fa9bd1f725dU, 0x3dae3096bbf2334aU, 0xbc9e76503baa15e6U, 0x3bf371b1bc97c000U,
  0x3c8714ed3ddd9af6U, 0xbdf83a75bc7913b2U, 0xbe07b22cbe7884c3U, 0xbd26fe08bd13f343U,
  0x3ddd1e7e3dacafefU, 0x3c05af143c89cff1U, 0x3ca31cf6bd626d03U, 0x3d91b4e93c6f5247U,
  0x3ddff09a3ddd9c51U, 0xbbba0a523d1a628aU, 0xbd34c9fc3db80cfbU, 0xbd07fcf13caa2d16U,
  0xbd3373bc3d0ff37eU, 0x3dced0443d9b7741U, 0xbc0d558d3d03c1aaU, 0xbca4fc0e3d4e2a38U,
  0xbd7a5d5ebe3bc86bU, 0xbc31882abc9842b9U, 0x3df2e1aebcdb0186U, 0x3d6fce313deae30dU,
  0x3db2c27e3d3f5649U, 0xbafb6ac63d8be549U, 0x3cfdd3d23d372e8cU, 0xbd4391c13d462227U,
  0xbd8c2471bc620fefU, 0x3d01143ebdc8026fU, 0x3e4ce3813e231fa4U, 0xbd9a66473d390786U,
  0x3d086898bd773242U, 0xbdd8b2663d46ba2fU, 0x3d666adbbe0d2f2aU, 0x3c472e393dfa65bdU,
  0x3e2658593e2002d5U, 0x3ddb0b323cccce7bU, 0xbcf45378bc6a5905U, 0xbd016e7e3da0db33U,
  0x3d9bbccc3d3fdba4U, 0xbd9d5cfebd249768U, 0x3c658c9bbae54626U, 0x3d968cd6bbea165dU,
  0x3dd605c13dc1d079U, 0xbc2c7ee83d104d9eU, 0xbdfc5c0eba69bb9cU, 0xbe02581abe19c921U,
  0x3d87ce84bd8b780bU, 0x3e2c2b583dd567a1U, 0x3e04f8903d8a0e99U, 0xbc9b74523d852efcU,
  0xbd4eba16bd52bc84U, 0x3ce20bcebc154e66U, 0x3d9112ce3abb8a2dU, 0x3db0fa143d340e8aU,
  0x3d9325cf3c386933U, 0x3dc321b5bcab898bU, 0x3d6d45ff3e22fdcaU, 0x3d8ece2f3e16d2b3U,
  0xbd09d12cbd488a13U, 0x3e082a913d1a229cU, 0xbbb9f692bc990aceU, 0x3d7be2c93d8ab1ddU,
  0x39f0df773d46a338U, 0x3d2e93f6bcb62149U, 0xbb87a67a3b4ca9dbU, 0xbd76e037bd5026dcU,
  0xbdcb1b0fbd1ed0f4U, 0x3da632b13cd4b869U, 0x3df965983cabfd23U, 0x3d5a301a3e0108e1U,
  0xbdeedacc3b943992U, 0xbd8cad693e57675eU, 0xbd28f0e6bc8a03b4U, 0x3dee34aabd5e179dU,
  0x3dbbc2da3d2b4ef5U, 0x3da6c91b3d79952fU, 0x3d43c9303d3c0fe2U, 0x3df0b5fc3d97123aU,
  0x3db8cfad3e2302eaU, 0xbd8a7d03bb9d34a6U, 0xbde336b8bc4dd7fdU, 0xbbb19f58bd5b50edU,
  0xbd0d620b3c98abd1U, 0x3c62d9f33e2f664cU, 0xbdba2834bc9d9365U, 0xbd1741c73d68568fU,
  0xbde05ff63cfd86afU, 0xbd783ca6be55d179U, 0x3c5a78aa3d856c2cU, 0x3d2407d73dcf7a81U,
  0x3dbf7f213d40fb3aU, 0x3e009a153e287929U, 0xbda80d263dd2d8afU, 0xbe178c9bbccaeacfU,
  0xbd501f86bd49cb92U, 0xbab57e92bc4da70aU, 0x3da7fe493cafd01bU, 0x3b3555c2bce14697U,
  0x3d80f25a3e04f9daU, 0xbad71ed13dab87ccU, 0xbd4927453d87d1ceU, 0xbdcac865bdfc94a3U,
  0x3e154afe3dfd6712U, 0x3df87d633d50f9e6U, 0x3bdd0a9dbcd03d03U, 0x3e07547c3d823685U,
  0xbd673b0f3d5d72cfU, 0xbdb0ac5cbe0029cfU, 0xbcc5c07d3cbd8382U, 0xbbbad5233c53db2aU,
  0xbd40078a3d8f2e03U, 0x3d4c5d9dbd664fdcU, 0x3c564a343e36ffa0U, 0xbdb309e6be0335b0U,
  0x3c9b28c33cbdadfeU, 0xbd88d055bd39e1b3U, 0x3dc22b2d3d7f6131U, 0xbd1df40dbd7babc1U,
  0x3bff21953df0c70bU, 0x3d39711a3c7c6f62U, 0xbca72d1e3c534270U, 0xbe34851fbe138b08U,
  0xbd97644fbde86f68U, 0x3d09c0dc3d055f6fU, 0xbd4cffd6bc4b89e7U, 0xbcc08fc63cc807baU,
  0x3cf9411a3ba0bf4aU, 0x3c11ff253af704afU, 0xbc0801abbd31a1deU, 0x3c92769fbe2ede2cU,
  0xbcc2642b3c53d981U, 0x3cb1ee1b3d94b052U, 0x3da25fe63da88b95U, 0x3d8a4db93e183eb3U,
  0xbdcca73dbd3d4b34U, 0x3c902ac2bde6d595U, 0xbdbaff62bdb0a2fdU, 0xbd352c26bce4edc7U,
  0xbcf18c613d4aebdaU, 0xbcac4e4f3d14bbb9U, 0xbe023ff0bd0c566bU, 0x3df134d2bd3f7a72U,
  0xbddcd1d03e0baf75U, 0xbe30f9c5be79e687U, 0xbcd9b2e23d46a396U, 0xbcdf33e6bbd1eb4eU,
  0x3cbb4d04bc5562c2U, 0xbca0f2533db46110U, 0xbcf65b0ebc8ad949U, 0xbd11af57bdced24eU,
  0xbb058b11bda238d0U, 0x3c9b3962bb8998a6U, 0x3c0932f0bd37ce23U, 0xbca9853d3d3a0b3eU,
  0xbc9033d0bc6fa54dU, 0xbdd962d6be219963U, 0xbb31db9d3bd78620U, 0xbe28acc4bdcd8cccU,
  0x3c0ff2cf3cf45ce8U, 0x3d8a230b3c7fd459U, 0x3d334fbe3d941d17U, 0xbe1ed075bc566568U,
  0xbdd48d37bd23bd99U, 0x3d0c4c59bd50df71U, 0xbdc565853d0339c2U, 0x3d5df0713d102e2cU,
  0x3ca4ab763d4d5c93U, 0x3cc041ae3db06bc7U, 0xbd60d9103cd8b86aU, 0xbd1766f7bd1433e9U,
  0x3b50b59fbd9ad94aU, 0xbd31ce13bdfbe918U, 0x3d0055043d9781aaU, 0x3cf68c78bc8e087bU,
  0xbdbc82fc3dc31c23U, 0xbb883817bc889f49U, 0x3d85f775bd64fa99U, 0xbcd7ec203c2a59d4U,
  0x3caf38b3bd9d5eb1U, 0x3d86d0d9bda11b22U, 0xbd9aa15f3af30dadU, 0xbc1c96af3d49a519U,
  0x3e0bd8ae3cf2ef61U, 0xbd76a360bd8c1603U, 0xbc5a5dadbbeb7880U, 0xbd1790cbbd669f06U,
  0x3df9c0fd3d67f833U, 0x3cf448293e0c7265U, 0xbd3754103d571f2aU, 0xbe00a2693cd24c0bU,
  0xbd6dc4593d41e158U, 0x3d1e6188bd0b134cU, 0xbc4792f8bd8eb8f2U, 0x3cd082a3bcf81ca6U,
  0x3c313eecbd17c5a1U, 0xbb4343c0bd468b8eU, 0x3e102a563d862ebfU, 0xbcdebcb93e14a922U,
  0xbda5b398bd1d051cU, 0x3cfebd44bddd7473U, 0xbd9f6050bd226bfcU, 0x3cc3a79c3db3a512U,
  0xbc6140b83dcd082cU, 0xbce1e3f5bc711d50U, 0xbc73ce7abcece84eU, 0xbb8702193da16edaU,
  0x3d4073adbc051a6bU, 0xbdce69bebab751c9U, 0xbe01171fbddba749U, 0x3cb017d43d0fe247U,
  0x3af04a333e0c435fU, 0x3d4527c93e0da554U, 0xbd394cf83c190ba0U, 0xbd8ce96fbe18696fU,
  0xbda3b17fbcf905d2U, 0x3cb91753bdf5a13bU, 0x3dc1dbbf3de02029U, 0xbc82a61e3c075c3eU,
  0xbd6268e93d4805a8U, 0x3cb5de5bbcf3f805U, 0xbc3709ff3d819751U, 0xbd93f697bdc00c8eU,
  0xbca2d94cbdab744aU, 0x3e3e66be3cebf912U, 0x3df03a7a3e4563bfU, 0x3ce55a2cbcd2bec4U,
  0xbceb797a3d833f3fU, 0xbcfff7d5bdfe2a17U, 0xbd5fe7b3be2b6cd3U, 0xbd71c400bd10795eU,
  0x3b476f743da5bb7cU, 0x3de98a143e19f61fU, 0x3de99badba5843f4U, 0x3c1b7b453db4f887U,
  0xbd41cce03d439259U, 0x3b2a3ec73d8b83c4U, 0xbdb940ff3d9b1e5bU, 0x3e114613bc99973aU,
  0xbdeeee403d3b0c36U, 0xbd5dfecebb2a31ceU, 0x3c2c8090bc82e474U, 0xbd56c8c13d9e7447U,
  0x3a8bea46be205a9aU, 0xbcadb0be3ca32883U, 0xbd53eca5bcb7b0b0U, 0xbd62a3d13d0198bdU,
  0xbd57a13dbdcee11cU, 0x3d9dc41abc0b2898U, 0xbcc748a9bd26df7cU, 0x3db5f74bbd87b967U,
  0x3de010383cfbe7c8U, 0x3ce8fd273dd2913aU, 0x3d12e6ba3d077a81U, 0xbc2915c8bd7226acU,
  0xbd504e323c5a5430U, 0xbd1e84a2bd23cc0cU, 0x3d7626e93e3e017dU, 0x3d1f1f023d7e6ec6U,
  0x3caf9484bbe8aa8bU, 0x3d589c0c3c0ca9b5U, 0x3bd10cc63d7beb74U, 0x3dccbef83d673c30U,
  0x3d9b4d143cbb5ed7U, 0xbd6297c03d4928d0U, 0xbc805bdf3deed9b0U, 0x3c9a1d5dbdb8973bU,
  0xbd8680483dc3fca5U, 0xbda5ca2fbd60b0d0U, 0x3d9f06133d8e38c9U, 0x3cd077ccbcb6f452U,
  0xbde5b44dbd247bf9U, 0xbc50e36bbdd86e08U, 0x3d76aecbbdb40f70U, 0x3cd7a1503d15c989U,
  0xbd8427b93a56acbcU, 0x3dc110753d9d5687U, 0xbe151c21bcbd6583U, 0x3da5b91bbd2128bbU,
  0xbdac08a03c9f1d2cU, 0xbd9b7a06bd803608U, 0xbd8cf135ba940280U, 0xbd9e46c3bd9c4f93U,
  0xbbb86a00bd91d39cU, 0xbc89b3c4bd1b50cbU, 0x3d29198e3b091c80U, 0xbd3d031f3d25aaa4U,
  0xbd19f0a7bd230ecbU, 0x3d83c6bf3da525bbU, 0xbd7c54babd8d6b1fU, 0x3c9223253d78089fU,
  0x3d9b35673cc92f98U, 0xbd7b7807bc6a2c48U, 0x3d2337bc3d1a3be2U, 0x3d9d67153d42196eU,
  0x3d6d33e6bd5d92d4U, 0xbd87fb80bd627d3eU, 0xbc10f548bd7ea79eU, 0x3d8854593d2e502cU,
  0xbd833f2b3c6b18c8U, 0x3d978dccbd9ee3c1U, 0x3d8eb130bada8e81U, 0x3dad306d3d410140U,
  0x3d9409733d4c8639U, 0x3b7aec0bbc8136d2U, 0xbd3e68483dc3f0d0U, 0xbd6b16143db392e7U,
  0x3c71df30bd7a9d9eU, 0xbd81502c3d366836U, 0xbd147e0939ead900U, 0x3d0ec1febd9f973eU,
  0xbd1d780bbcef6046U, 0xbcf28d0cbbdfcf80U, 0xbcc02cac3d3ea166U, 0x3cf3bc47bd65489fU,
  0x3db968373c91aedcU, 0x3e2a90813d8b7f41U, 0x3d74e3193d49bac6U, 0xbde97d64be0821c6U,
  0xbd934ce2be2dd320U, 0xbddfb15cbcb9f399U, 0xbd05ee97be5a6c12U, 0x3d567b0cbd9d5eabU,
  0xbc5699983df9df30U, 0xbca2a0e8bd74c888U, 0xbd10dd27bc1ef250U, 0x3d8cd309bd944d5eU,
  0xbdd2efe43dac2f55U, 0xbdb649b2bdbd5427U, 0x3d6a75cd3bbfe827U, 0xbc9226953c9898a6U,
  0x3de5ec77bc76b31cU, 0x3d8b55cb3dc4ca6dU, 0x3d8734013db4f240U, 0x3d1eb1683deb09eeU,
  0x3b64ce41be129fb6U, 0xbddf6685bd1126edU, 0xbd57cd0bbd8fe64eU, 0x3d4274023d5b59baU,
  0x3d6decd6bd680f64U, 0xbbd6b4e3bc3ddd6bU, 0xbdda4eac3e069e9fU, 0xbd577b79bccb4168U,
  0xbd78050abda5138dU, 0xbd602d95bd0f6deaU, 0x3d876a71bd8c189fU, 0x3dc1860e3e49f279U,
  0xbc1ec5423e195763U, 0x3cfa44483d63687cU, 0xbd0abce43d68e9dcU, 0xbd7e4a82bd6f1cd2U,
  0xbe26ccedbdf9bad8U, 0xbd9bf9ccbdcb90b5U, 0xbd00ccb3bd8db622U, 0xbd8dfb6abd7c2656U,
  0xbe14c52bbdb721cbU, 0xbd65f627be283e18U, 0xbce14fcf3d08aae3U, 0x3dca341a3d3dd096U,
  0x3e132b3fbca9b6c9U, 0xbd2ce10c3da1b9e6U, 0x3da349a73d5de959U, 0x3d58fd2ebd402b69U,
  0x3de95d203e031a57U, 0x3d16c0463c342ab1U, 0xbe31295fbceb2decU, 0xbd0d8fc7be295f2aU,
  0xbcbe1cb2bd1d38c7U, 0xbdd7104b3c81beafU, 0xbd9142b43c4a2d76U, 0x3d090166bcf223adU,
  0x3dfb24e7bcd52da0U, 0x3e030b943d5457c8U, 0x3d9909e73cd59cdeU, 0xbd59d6663e1f9933U,
  0xbd1dd0633d95edccU, 0x3da1a8753d0ae6d0U, 0x3d7ffb843cbd150bU, 0x3d278f883da57160U,
  0xbe596c113d644bbaU, 0xbceaa807bda7119cU, 0x3c32bc55bc623480U, 0xbc629166bd225d28U,
  0x3e0389743d6a5d7eU, 0x3d8998e2390bc8acU, 0x3df359823e038f1cU, 0x3e1326fd3e182d97U,
  0x3d959e553dbd7d6dU, 0x3c3776f13ce75adfU, 0x3d5ca0943d3d5b95U, 0x3e088635bd3efbe5U,
  0xbd236b9abd44f969U, 0x3c2292653db99ffbU, 0xbdbcf9a03e32a9f0U, 0xbd25470cbd77621cU,
  0xbd8c552fbda5154eU, 0xbd1ea5893c16ddb9U, 0x3e0346f33e2ebacbU, 0xbc069cff3c960b75U,
  0x3d1e4aa43d9fd120U, 0x3da5d1643de42302U, 0x3cba97ba3cc9d03eU, 0x3d919a22bd9074e8U,
  0x3d75ca293bf483f7U, 0x3d00ad40bd1c8c11U, 0x3dcea13c3da180d5U, 0x3db0df363e150401U,
  0x3ce7468f3dfba44aU, 0xbd182d2ebcfae743U, 0xbd8ae8f2bbae1bf0U, 0x3c3df3ab3deb6abaU,
  0x3db91491babce9a0U, 0x3df309023d38b1f7U, 0x3de01c4b3ddb0b0bU, 0x3d9498503dcc6414U,
  0xbde8cd76bda6be86U, 0xbdc1e009bdaa1f08U, 0x3dac9ea13d6a2e36U, 0x3db4ade6bc2e99b1U,
  0x3cce1dde3dac1035U, 0x3dca00a7bafb8e3cU, 0x3c051b3d3d61533cU, 0x3da6f0333d321932U,
  0xbc94c081bd04b497U, 0x3d8fcc663d732d5cU, 0x3dec8c993bb2a674U, 0xbd345cf83cf7f38aU,
  0x3e3bc4343c924d81U, 0xbd85e4df3d39a31dU, 0xbe447301bdc4b2bdU, 0xbb35c8d9be24a8e6U,
  0xbd64278ebd109526U, 0xbd8ad6383cdcac50U, 0x3d28a06abd4c0ad1U, 0x3d97a1dc3da8c531U,
  0x3dbda63d3e04b340U, 0x3d9ab12a3d8bab75U, 0x3d6a7c04bd965220U, 0xbd0396b7bbe03f11U,
  0xbd2ca8983d5543e6U, 0x3d7c551d3ddd3598U, 0x3d2525d43d94d74bU, 0xbd816d633c2b91e2U,
  0xbed6e7bcbe77223bU, 0xb9e63618be8361f3U, 0x3c3a49503d2be6d7U, 0xbe5ce71ebde146c7U,
  0xbbbab2cebd96a72fU, 0x3da0a7733c100e5fU, 0x3e1641fe3e143784U, 0xbb8bdbc93d93a1e3U,
  0xbcedfb03bc820b48U, 0x3d45470fbb8e20e9U, 0xbda88c2ebd2d45f3U, 0xbc0043673d3d3f72U,
  0x3dd34a023dbdf7b8U, 0xbe8b67b4bcd368e6U, 0xbe94da75becfe252U, 0xbde0a45fbdeee7fdU,
  0x3ccde3f1bd111390U, 0xbdef96febe25a312U, 0xbdac645cbe3ac3e5U, 0x3d8a36843ca31949U,
  0x3ce1a0383e3b07e1U, 0x3c830bc23d9bed0aU, 0xbba335c0bbcd2af0U, 0x3d8c0e573d0ebebcU,
  0xbd306e713d6cc72dU, 0x3d8e63863d06c632U, 0xbbf138c33d9e1e3aU, 0xbe899556bdd67141U,
  0xbe006fd4beb1fe0dU, 0xbc803258bd5bbd9aU, 0xbcc52e91bce5d4ceU, 0xbe61dd43be6a53ceU,
  0xbbbd1e21be4958a2U, 0x3d8ab2eabc013a83U, 0x3d3d55af3d8bd833U, 0x3df3e7d4bbe4cef4U,
  0xbda0604dbd671ae6U, 0x3daec080bd629b71U, 0x3dd0aae23d508107U, 0xbc9723123ca359c5U,
  0xbdf97c93bd65eb70U, 0xbe5ac7aebe917873U, 0xbdb0ecf4be5fce07U, 0xbdb07250bca49b19U,
  0xbe195926bdfa500cU, 0xbe46418bbe65e5d6U, 0x3dbf1bb6bda521d5U, 0xbd4a5ef13c844f04U,
  0xbd5ce92fbd1ae9daU, 0x3d64e5983e0c231cU, 0x3bd124cb3d9d10f9U, 0xbc9e2fb83baa4972U,
  0x3dc4568cbd296103U, 0xbd434b7e3bb881c4U, 0xbe3a767fbc73f2e5U, 0xbe6fefafbe48fc35U,
  0xbc92c086be188a6aU, 0xbdb7b7173c6148e8U, 0xbe5e791bbe142639U, 0xbe05ca35be4837cfU,
  0x3dbd4908bc81041aU, 0xbc7b6973bde12bd7U, 0xbcdfe17dbd169414U, 0x3dc397f93de5708cU,
  0xbdde23413b027f80U, 0xbd1e10d8bb878114U, 0x3da7f792bd6b0ea1U, 0x3d8fc5d4bd91a3e6U,
  0xbe11e035be08e18aU, 0xbcb1091abd3b1340U, 0x3da62083bd406a78U, 0xbe424b14bd9a991bU,
  0xbe925e48be3bb0c7U, 0xbde75998bea9b612U, 0xbd77d09a3ce309d5U, 0xbcfd6e11bce61bd1U,
  0x3d133943bdd4fbf9U, 0x3dd183633d1c836eU, 0xbdd1c2e33d96248fU, 0xbdb1da8fbe193650U,
  0x3be4e2463d97f402U, 0x3d247861bde183acU, 0xbd078b2bbdd4c854U, 0xbd94788bbd940c13U,
  0x3c1f4ec63d4e4dbbU, 0xbe1da041bd624ce5U, 0xbe7cdb0bbec0c981U, 0xbd08c3a4be20c12bU,
  0xbdddf86f3d227793U, 0xbde6c457bd24329cU, 0x3d2fda61be1708bcU, 0x3d84b6af3bed95c0U,
  0x3c83b7cbbd476e08U, 0xbdba652ebd9dda92U, 0xbe1161b6bd40b195U, 0x3d6fbd4bbd6be673U,
  0x3d929228bd9016ddU, 0xbcf371ca3cd3924cU, 0x3c0930b4bb0e0c8aU, 0xbea85fbdbdd9d82bU,
  0xbe699116bec10be6U, 0x3cf3640a3be6d108U, 0xbc998d93be018a9fU, 0xbdf2b7d8bcc21d38U,
  0x3d5c5fabbe680bccU, 0xbd91a4433d9f4ca0U, 0xbd118d0a3d307c24U, 0xbde107633e09479cU,
  0xbe4db4e3be2ac84dU, 0x3d3b5dd2bc4f1bfbU, 0x3dd5636b3d5c0d44U, 0x3dcd8f73bc5f4f07U,
  0xbca1b5a23d2e0c34U, 0xbe8f5cf8be39a446U, 0xbd088a2ebde9d58dU, 0xbdf85b423c5a0ef3U,
  0x3d2539273c4fd973U, 0xbe23e54b3d4e074eU, 0xbd5a1910be1f9b24U, 0xbcd827f73e45b68bU,
  0x3c8c9984bd4312b0U, 0xbd35c1ef3d6e02d8U, 0xbc965836be1f7557U, 0xbc6e68f9bb06c1c5U,
  0x3c6ed7fe3cce6d23U, 0x3df0db283d0c0283U, 0x3e2b7ae73dcd9c6fU, 0x3d346a943d560102U,
  0x3e1daa203dd1ff0cU, 0x3bbf492d3c75a9a8U, 0x3c0a3f6e3ccc9661U, 0x3ccf3a85bc8522bdU,
  0x3c512e88be0258f2U, 0xbd863afb3d063529U, 0xbd9664143d8aa0ecU, 0x3d7d5201bc739bf2U,
  0xbd6195c5be1ab1e7U, 0xbd929fd63b4f0a7bU, 0x3db891873db56ec0U, 0x3e1bf20f3dc81d61U,
  0x3e240d4c3e6aa72cU, 0x3e8f3cac3e6bc20eU, 0x3dfa00703e803f66U, 0x3d5a0fbd3df31055U,
  0xbd37b6733dac8f12U, 0x3df58c813daf1518U, 0x3e1d08713d8dd9f1U, 0x3d5fdd1e3e06c351U,
  0xbd4979c5bd2f6b31U, 0xbdba9fd6bcf7d7ccU, 0x3d5ebb243d1ae6c5U, 0xba8203a3bd0ccb54U,
  0x3cd39a1a3e1c5a8eU, 0x3e7b276b3dd1efa1U, 0x3e596c723de6ab40U, 0x3e3b3ad63e425e2bU,
  0x3dce2a753e580028U, 0x3d5fe7733e36aec1U, 0x3be3e6963cbf41c6U, 0x3d4047793e0b2e4cU,
  0x3d7e34a53d909d3fU, 0x3d5cd688bc92b732U, 0xbd293570bc1447f8U, 0xbd5f4425bd852e61U,
  0x3cdde84f3d6fcfe0U, 0x3df371933cb9f99dU, 0x3dcecffc3e0d20eaU, 0x3ddfe2223cd1507bU,
  0x3e3975533e5143a3U, 0x3e34164e3e2d44e3U, 0x3debc9e43e42987dU, 0x3e4c4f393e2f4c13U,
  0x3b9831ec3db74821U, 0x3cc998333e076281U, 0x3e123445bce69d2bU, 0xbbc230c0bdba9e99U,
  0xbd110f71bcebb650U, 0x3ca24ef1bd840a42U, 0xbdba49cd3d7b5872U, 0xbda0153ebd0a5965U,
  0x3d47dee23e1af894U, 0x3e134f2b3da27d3fU, 0x3dcb62003db04907U, 0x3df1e0dd3d820da1U,
  0x3e8c077a3e2a7d4aU, 0x3d88ac993dc83352U, 0x3abbffb53df2f8ddU, 0x3d75165c3d9156f3U,
  0x3d90ff9d3e4d0561U, 0xbd6bd9e1bd29ba95U, 0xbd2fb0f13d98e3e7U, 0xbd1fe7213d1e5f07U,
  0xbdf98c2e3b2c325dU, 0xbd49e8c3be32ed9cU, 0x3d6c23723c669fc8U, 0xbd9d81a6bd9d86ebU,
  0xbde6c1b23cc89d15U, 0xb96a7648bd2ed214U, 0xbd82c9343c147405U, 0xbd06d7d5bc6e6877U,
  0x3d2b9ab3bda90a8bU, 0xbbec59f83d38999fU, 0x3ce8f5e83b352bfeU, 0xbd23b9ccbbb6fa70U,
  0x3b2411c0bd8d28f6U, 0xbd8f756ebb929220U, 0xbdb7691dbca72b0fU, 0xbe774249be56f17eU,
  0xbc8fabc3bd88a1f8U, 0xbd323db4be02c08bU, 0xbd372c33bdd0b4efU, 0xbe5d1a5dbe357664U,
  0xbe230079bdf2d1ffU, 0xbdf98834be881b3aU, 0xbe249a1cbdfac455U, 0xbd20dcffbd9e620bU,
  0x3d3fd62ebbc18bc0U, 0xbd3ec2f43d18b7daU, 0x3c983294bd8294f8U, 0xbd552b1a3d80df7dU,
  0x3cdb6f68bc5a8ac0U, 0xbd7e24ccbd0a410bU, 0x3d58c0e9bc9f1fc8U, 0x3d468314bc47f617U,
  0xbc9ee7d93d4bd2b8U, 0xbd75d798be076a78U, 0x3d7f7fcabc3a0618U, 0xbca1c8353d03142bU,
  0xbe063e383b03a7c0U, 0xbe182a83be17d7f5U, 0x3d2dc7debd515dc6U, 0x3d7ec9563a41f380U,
  0x3d5f533ebd503d1aU, 0x3d2555e23c3eabd8U, 0xbd7a8c67bd51c75cU, 0xbd58cf5ebd70efc4U,
  0x3da348833c2514e0U, 0xbc20c040bd054d1aU, 0x3c387090bc930b66U, 0xbd43b3c83dda7c5dU,
  0x3ca0a9543d009198U, 0x3c317490bda25786U, 0x3c8cf8ccbd16594dU, 0xbcd612543c83d6b0U,
  0x3b8cc390bca5006eU, 0xbc356e703d8b3bcfU, 0x3c6af738bd9adc8bU, 0xbcad9b70bd7cc0eeU,
  0x3ccd06e4bd47ccf8U, 0x3c4f8932bd2b9e9eU, 0x3d9f9e953dd7219aU, 0x3dbfc154bc4fe22eU,
  0xbcd6e0893d8e9642U, 0x3e0680d63d1a7410U, 0x3d0b55073e053f7aU, 0xbbbdb91cbdd3e142U,
  0x3d02ff8b3ca4ee43U, 0x3ce2fca639d2cbeeU, 0x3d9237bdbd96f41fU, 0x3c4167d8bda56ae6U,
  0xbd0e1eebbd7800c2U, 0x3c370150bd3cdda2U, 0x3c6886b13c30f349U, 0x3ddd4c4cbcef5e48U,
  0x3e2bc77f3d28d19aU, 0xbb5c3c3f3d40f621U, 0x3da1d7193e0e0c8fU, 0x3e5da1c93dff32e3U,
  0x3d36af463d862683U, 0xbc9effadbad7a6c2U, 0x3d81854dbd8a2c28U, 0x3e1af2953e03b15eU,
  0x3cccb2ba3e1b2611U, 0xbc526758bd8cf752U, 0xbd239af4bd5ac63cU, 0x3cc258193e146b50U,
  0x3d0e45bc3cca1c6bU, 0xbd9b8aacbca1ca49U, 0x3d601e9cbd5322adU, 0xbdfa54babd41cd7dU,
  0x3d08839bbbc90bb9U, 0xbd8e5fae3defd4bdU, 0xbaf1f714bcaf8559U, 0x3cf4a838bda2d452U,
  0x3db00bec3d0a73caU, 0x3cdc25473d06e104U, 0xbd7160183d9601c8U, 0x3c3b32d03d1808c3U,
  0x3d6ec002bd3d680bU, 0xbe339e7a3c6b2a0fU, 0x3d107edfbd8400d2U, 0xbb03881e3da74303U,
  0x3d95fcfcbd47469dU, 0x3d8d4fe73c4d9b7eU, 0x3e08cc963df060afU, 0x3d26d60abc8a6ef7U,
  0xbb95747039f6acd0U, 0xbd5dceefbd97659cU, 0xbe192a7dbdd86574U, 0xbe18db52be26bbc8U,
  0xbe0d5af3be21d762U, 0xbe0445c1be1b6d56U, 0xbd7ee32c3c240aa8U, 0xbddb756b3cbb6425U,
  0x3da2726abc08886cU, 0xbb7f510a3d13f4f7U, 0xbdd45e583d269f6aU, 0x3d357c873d39b300U,
  0x3d2a61f53aeed1d3U, 0xbcd6e7233d18fb82U, 0xbd05b035bdf61bfdU, 0xbd01bb5abc1a44a9U,
  0xbda939a5bd58a97fU, 0x3c7472a4bd9674dcU, 0xbda67b8cbd67fc49U, 0xbd2e1758bda2ee3fU,
  0xbb90fa20bd3d4f39U, 0xbdfecdc3bca16f06U, 0xbdf9da7bbd862b6bU, 0xbd82c5e6bd487a8cU,
  0xbca4f554be00ccc0U, 0x3d152218bb21a4f3U, 0xbc9005ee3caa7951U, 0xbd2ff775be1a2decU,
  0xbd1e59873c88c9b8U, 0xbd8241003dad5e04U, 0xbd8ac406bd49daa4U, 0x3d26fadabd11f4f0U,
  0xbde2f8a03ce36685U, 0xbbdabcf13c981429U, 0xbe17a2d7bd9eadacU, 0xbdb0aae7bda6988aU,
  0xbe01b169be10c198U, 0xbc941497be2a308fU, 0xbdcbc5f9bcde23c5U, 0x3ca23f7fbd341435U,
  0xbe1fc2bbbd115d84U, 0xbcd3fa8cbdd14126U, 0xbd7e9732bd396e2eU, 0x3d440bcabca1cf9dU,
  0x3d4cc874bc0ee0e1U, 0xbdede5463d9ca793U, 0xbe0db3a2bd989337U, 0x3d4c44053d9dfd42U,
  0x3cb0a5d9bcbb4f54U, 0xbe42b8a1bb5dacd4U, 0xbe02092abe717397U, 0xbd9dc0dabdf8bb7eU,
  0xbe0f9405bd6879b8U, 0xbda6fcddbd318e16U, 0x3c9ce6ad3ccc4e0bU, 0xbdc13e2d3d0baeb1U,
  0x3c69dd9abe22434cU, 0xbdf223a1bde4efe2U, 0xbbbc2545bd1f1edfU, 0x3d33ee87bc3f88fdU,
  0xbdd6eb99be2a9d0fU, 0xbd28c665bce592f6U, 0xbe0520643d86767fU, 0xbc03a7cebdf6cba3U,
  0xbdf6ec07be96ef47U, 0xbe25f807be419535U, 0xbdee7987bd3dedb5U, 0xbdc934cdbd87e808U,
  0x3b0e561dbd95f7a5U, 0xbd5d90ddbca2de87U, 0xbe197cdbbd1eefbdU, 0xbd8e50e2bda061a3U,
  0xbe2a4eddbe13388eU, 0xbde3d381bdf48043U, 0xbe2ea7c9bc88d410U, 0x3db587673c079be6U,
  0xbd76ba0d3d1899d2U, 0xbe160e2abd4562c2U, 0xbd62a54bbe15301cU, 0xbbe21fe43ad08754U,
  0xbdbef0cdbe0219f5U, 0xbd90e533bc945befU, 0x3d8109373ce628ccU, 0x3e1093113e027cd4U,
  0xbe11cc623d8e7dbdU, 0xbe0713d8be2b26a4U, 0xbdd2c4c1be1ce9b1U, 0xbba57e893a46dc5cU,
  0x3d8cd2103cdcfd66U, 0x3d01ef9cbd03d4e8U, 0x3e0c11253d95c4adU, 0xbe13a0593d9fe05fU,
  0xbd6ebbc6be71d701U, 0xbe09140ebd9eef7fU, 0xbe0c8412bdf4da0eU, 0x3d835b1b3c4aeb40U,
  0x3e079a56bbe28fc8U, 0x3e0e88733dc15e84U, 0x3b04ae7fbd1b005dU, 0x3cf0e65dbd5d6e14U,
  0xbc934f66bdd3740eU, 0xbd617b34bda00798U, 0x3de2bfcc3da40593U, 0xbda221cbbe111ef9U,
  0x3d773dff3d47713eU, 0xbe68cc743ca23119U, 0xbde4c9abbd9c2002U, 0xbe180ce0bdf0be1eU,
  0xbc3a7f84bdd478efU, 0x3d61a437bdc37e43U, 0x3e27ebc83dc64090U, 0x3df203c33de575baU,
  0xbc7f4d563cbd85c6U, 0xbd2cd1833d5c6b88U, 0xbdcfc2edbdf864b7U, 0xbe2ac436bd1c5a24U,
  0x3e78ead73ccb3a17U, 0x3d32f2053c7fb2a7U, 0xbd90e0b43d3dca9dU, 0xbe3bc440bdbd0822U,
  0xbc631b2cbc735311U, 0x3d9bf347bddb74bbU, 0xbe0ad0a3bd74ea3dU, 0x3d40cee13d5ed7c2U,
  0x3e5f37f13daba8a2U, 0xbba2c7553e393bd6U, 0x3c0899f83d9d1ffdU, 0xbe01f8673d80c6d5U,
  0xbe4c9914be8205ccU, 0xbd615031bde3b2b9U, 0x3db7e8123da10908U, 0x3d8b66b43e87a57dU,
  0xbc711fdd3d2c46bcU, 0xbc5e5c873dbbab9cU, 0xbddd70acbd25ef58U, 0x3d2920e83d09bbc8U,
  0xbd7ce85f3bb407a8U, 0x3d84e8983de70179U, 0x3e165ba63e43b909U, 0x3d99ddb23e2b1cb6U,
  0xbcab0a5b3db06f69U, 0xbdf9eab73d25183eU, 0xbe30539dbe20f431U, 0x3dd53dd7bda2a7a8U,
  0x3e4b2ec13e3b5e38U, 0x3e1b0b513e79870eU, 0xbd50e2353d9be2c1U, 0x3cb7072a3d8ef171U,
  0xbdab822dbe520e67U, 0xbcde4c0cbc8e64eaU, 0xbd9a447b3be74edbU, 0x3e2749cd3dcff10fU,
  0x3dd0cc403e215f23U, 0x3d8d33d83da9919eU, 0xbbf8628fbcd6ea4fU, 0xbe552d5cbd2a2df7U,
  0xbdf04733bdf40b27U, 0x3daaf04fbdfbc224U, 0x3e38d43b3e6e07a3U, 0x3d6a9fcf3df1cb59U,
  0x3c8e47a1bd82c2afU, 0xbcb64e9bbd80343cU, 0xbc9956a1bdbaa7ecU, 0x3da7a30a3d9e3307U,
  0x3da4ffef3c83b5f4U, 0x3e1d92ad3d8526d1U, 0x3e4e67e13df7194dU, 0x3dcffc743e495513U,
  0xbdf1f81fbd3541cfU, 0xbe3b0a66be040144U, 0x3d85d123bdb3c23dU, 0x3dc654ee3ce65436U,
  0x3e7ecdc23e2f1042U, 0x3e61e5093e116089U, 0x3db83f2c3d83db5dU, 0x3935e14c3b89d2e9U,
  0x3ced02653d41a1f2U, 0x3b3ff5cf3e0cf8d8U, 0x3b4fe3c13d0c353eU, 0x3e179a0e3dabbaf4U,
  0x3db7e03d3e38362dU, 0x3d07e7683e3b1229U, 0xbe42fe8ebd6a508aU, 0x3db7ae083b4c0f61U,
  0x3d561156bb7941a4U, 0x3de222ec3c6cda05U, 0x3e3c8e793d9b8239U, 0x3e8d5403bb09177fU,
  0x3d2c25db3c0747a0U, 0x3d560768bdc3a27dU, 0x3d699b2b3df7b6caU, 0xbd35d4ba3c905da8U,
  0x3d45bdae3d9298d9U, 0x3c9343273d432c8fU, 0x3e14ed883e0e4a77U, 0xbda346a73dbc91cdU,
  0xbd19e3d6be111fb4U, 0x3dbab60b3df2bd0eU, 0x3defcf9b3d80454bU, 0x3d28ad513c7f4a0dU,
  0x3ea25e2e3e6b506aU, 0x3e4b9a623d11547dU, 0xbd99f0e4bd807e45U, 0x3e0298ddbcd5276bU,
  0xbc274ba33e14679fU, 0xbd153e3fbd5800d3U, 0xbce3d1cfbdc9eb6cU, 0x3e1888423cbe7663U,
  0x3db64b453e10b8deU, 0x3b9547483ce3c26dU, 0xbbf00020bc08affbU, 0x3dcd6d3e3e1a3d5fU,
  0x3d3bfc4c3dde7c93U, 0x3e8ce4d93db154d0U, 0x3e40f11b3e11af63U, 0x3dbc96083e343e8eU,
  0xbd3fc7993b6deda0U, 0x3d60662fbdda3d04U, 0x3cb5ab113def7bf5U, 0xbe05d059bc9790d1U,
